{
  "version": "1.0",
  "truncation": null,
  "padding": null,
  "added_tokens": [
    {
      "id": 0,
      "content": "[PAD]",
      "single_word": false,
      "lstrip": false,
      "rstrip": false,
      "normalized": false,
      "special": true
    },
    {
      "id": 1,
      "content": "[UNK]",
      "single_word": false,
      "lstrip": false,
      "rstrip": false,
      "normalized": false,
      "special": true
    },
    {
      "id": 2,
      "content": "[CLS]",
      "single_word": false,
      "lstrip": false,
      "rstrip": false,
      "normalized": false,
      "special": true
    },
    {
      "id": 3,
      "content": "[SEP]",
      "single_word": false,
      "lstrip": false,
      "rstrip": false,
      "normalized": false,
      "special": true
    },
    {
      "id": 4,
      "content": "[MASK]",
      "single_word": false,
      "lstrip": false,
      "rstrip": false,
      "normalized": false,
      "special": true
    }
  ],
  "normalizer": null,
  "pre_tokenizer": {
    "type": "Whitespace"
  },
  "post_processor": null,
  "decoder": null,
  "model": {
    "type": "WordPiece",
    "unk_token": "[UNK]",
    "continuing_subword_prefix": "##",
    "max_input_chars_per_word": 100,
    "vocab": {
      "[PAD]": 0,
      "[UNK]": 1,
      "[CLS]": 2,
      "[SEP]": 3,
      "[MASK]": 4,
      "!": 5,
      "\"": 6,
      "#": 7,
      "$": 8,
      "%": 9,
      "&": 10,
      "'": 11,
      "(": 12,
      ")": 13,
      "*": 14,
      "+": 15,
      ",": 16,
      "-": 17,
      ".": 18,
      "/": 19,
      "0": 20,
      "1": 21,
      "2": 22,
      "3": 23,
      "4": 24,
      "5": 25,
      "6": 26,
      "7": 27,
      "8": 28,
      "9": 29,
      ":": 30,
      ";": 31,
      "<": 32,
      "=": 33,
      ">": 34,
      "?": 35,
      "@": 36,
      "A": 37,
      "B": 38,
      "C": 39,
      "D": 40,
      "E": 41,
      "F": 42,
      "G": 43,
      "H": 44,
      "I": 45,
      "J": 46,
      "K": 47,
      "L": 48,
      "M": 49,
      "N": 50,
      "O": 51,
      "P": 52,
      "Q": 53,
      "R": 54,
      "S": 55,
      "T": 56,
      "U": 57,
      "V": 58,
      "W": 59,
      "X": 60,
      "Y": 61,
      "Z": 62,
      "[": 63,
      "]": 64,
      "_": 65,
      "a": 66,
      "b": 67,
      "c": 68,
      "d": 69,
      "e": 70,
      "f": 71,
      "g": 72,
      "h": 73,
      "i": 74,
      "j": 75,
      "k": 76,
      "l": 77,
      "m": 78,
      "n": 79,
      "o": 80,
      "p": 81,
      "q": 82,
      "r": 83,
      "s": 84,
      "t": 85,
      "u": 86,
      "v": 87,
      "w": 88,
      "x": 89,
      "y": 90,
      "z": 91,
      "{": 92,
      "}": 93,
      "©": 94,
      "®": 95,
      "°": 96,
      "µ": 97,
      "·": 98,
      "º": 99,
      "¼": 100,
      "½": 101,
      "è": 102,
      "é": 103,
      "ü": 104,
      "–": 105,
      "’": 106,
      "“": 107,
      "”": 108,
      "…": 109,
      "##o": 110,
      "##m": 111,
      "##p": 112,
      "##r": 113,
      "##i": 114,
      "##s": 115,
      "##e": 116,
      "##d": 117,
      "##O": 118,
      "##S": 119,
      "##E": 120,
      "##N": 121,
      "##6": 122,
      "##0": 123,
      "##W": 124,
      "##F": 125,
      "##y": 126,
      "##k": 127,
      "##n": 128,
      "##t": 129,
      "##c": 130,
      "##8": 131,
      "##h": 132,
      "##u": 133,
      "##a": 134,
      "##g": 135,
      "##l": 136,
      "##D": 137,
      "##I": 138,
      "##w": 139,
      "##b": 140,
      "##f": 141,
      "##x": 142,
      "##v": 143,
      "##L": 144,
      "##A": 145,
      "##Y": 146,
      "##P": 147,
      "##q": 148,
      "##R": 149,
      "##M": 150,
      "##2": 151,
      "##T": 152,
      "##U": 153,
      "##C": 154,
      "##4": 155,
      "##H": 156,
      "##G": 157,
      "##5": 158,
      "##B": 159,
      "##7": 160,
      "##V": 161,
      "##3": 162,
      "##9": 163,
      "##1": 164,
      "##z": 165,
      "##_": 166,
      "##j": 167,
      "##X": 168,
      "##.": 169,
      "##,": 170,
      "##Z": 171,
      "##Q": 172,
      "##*": 173,
      "##K": 174,
      "##-": 175,
      "##'": 176,
      "##;": 177,
      "##J": 178,
      "##:": 179,
      "##?": 180,
      "##)": 181,
      "##/": 182,
      "##+": 183,
      "##<": 184,
      "##(": 185,
      "##º": 186,
      "##@": 187,
      "##!": 188,
      "##\"": 189,
      "##%": 190,
      "##>": 191,
      "###": 192,
      "##é": 193,
      "##è": 194,
      "##ü": 195,
      "##he": 196,
      "##er": 197,
      "##ed": 198,
      "##at": 199,
      "##in": 200,
      "##on": 201,
      "##en": 202,
      "the": 203,
      "##al": 204,
      "##as": 205,
      "an": 206,
      "##or": 207,
      "##it": 208,
      "##re": 209,
      "##is": 210,
      "and": 211,
      "##ion": 212,
      "##ar": 213,
      "in": 214,
      "was": 215,
      "##ent": 216,
      "##es": 217,
      "##ic": 218,
      "of": 219,
      "to": 220,
      "##ro": 221,
      "##ing": 222,
      ".,": 223,
      "##le": 224,
      "##an": 225,
      "The": 226,
      "##ith": 227,
      "##ct": 228,
      "with": 229,
      "##om": 230,
      "##os": 231,
      "##ou": 232,
      "##ter": 233,
      "##el": 234,
      "re": 235,
      "##il": 236,
      "##ig": 237,
      "th": 238,
      "##ati": 239,
      "##ac": 240,
      "##ot": 241,
      "##ul": 242,
      "##id": 243,
      "is": 244,
      "##ve": 245,
      "##ation": 246,
      "##ur": 247,
      "##ad": 248,
      "##atient": 249,
      "##ly": 250,
      "##us": 251,
      "patient": 252,
      "##em": 253,
      "##ra": 254,
      "##ow": 255,
      "##ut": 256,
      "##ol": 257,
      "##ht": 258,
      "st": 259,
      "##op": 260,
      "##im": 261,
      "##ure": 262,
      "for": 263,
      "##ain": 264,
      "##ight": 265,
      "##pp": 266,
      "on": 267,
      "##st": 268,
      "##ere": 269,
      "##nd": 270,
      "be": 271,
      "##ef": 272,
      "##um": 273,
      "dis": 274,
      "##ect": 275,
      "were": 276,
      "at": 277,
      "ex": 278,
      "##ia": 279,
      "##ated": 280,
      "con": 281,
      "as": 282,
      "##orm": 283,
      "pro": 284,
      "##et": 285,
      "##TI": 286,
      ":,": 287,
      "##od": 288,
      "##res": 289,
      "##ver": 290,
      "##am": 291,
      "or": 292,
      "##ec": 293,
      "pl": 294,
      "he": 295,
      "al": 296,
      "##ble": 297,
      "not": 298,
      "##eft": 299,
      "##ce": 300,
      "##ES": 301,
      "##ial": 302,
      "then": 303,
      "su": 304,
      "##if": 305,
      "##ell": 306,
      "##ir": 307,
      "##oc": 308,
      "##ay": 309,
      "right": 310,
      "##ine": 311,
      "##ate": 312,
      "##ch": 313,
      "his": 314,
      "has": 315,
      "##ior": 316,
      "left": 317,
      "##ON": 318,
      "no": 319,
      "##ge": 320,
      "##est": 321,
      "that": 322,
      "##eral": 323,
      "She": 324,
      "##th": 325,
      "wh": 326,
      "##ear": 327,
      "pos": 328,
      "app": 329,
      "us": 330,
      "##ATI": 331,
      "her": 332,
      "##ast": 333,
      "##ess": 334,
      "##per": 335,
      "##ST": 336,
      "He": 337,
      "per": 338,
      "this": 339,
      "##ort": 340,
      "are": 341,
      "##ous": 342,
      "plac": 343,
      "##ill": 344,
      "##rom": 345,
      "int": 346,
      "##ormal": 347,
      "com": 348,
      "ab": 349,
      "##ary": 350,
      "se": 351,
      "##ical": 352,
      "##ory": 353,
      "##ld": 354,
      "##ER": 355,
      "inc": 356,
      "ne": 357,
      "##ED": 358,
      "##OR": 359,
      "##ress": 360,
      "##one": 361,
      "ad": 362,
      "##un": 363,
      "##pl": 364,
      "had": 365,
      "##end": 366,
      "##her": 367,
      "she": 368,
      "##ak": 369,
      "sh": 370,
      "##ies": 371,
      "##iz": 372,
      "##og": 373,
      "##ph": 374,
      "##ular": 375,
      "##ri": 376,
      "##ug": 377,
      "sp": 378,
      "##able": 379,
      "##pt": 380,
      "##ant": 381,
      "ch": 382,
      "##ateral": 383,
      "##IC": 384,
      "##all": 385,
      "##out": 386,
      "we": 387,
      "No": 388,
      "PR": 389,
      "##IA": 390,
      "bl": 391,
      "##qu": 392,
      "cl": 393,
      "There": 394,
      "placed": 395,
      "ar": 396,
      "##iv": 397,
      "##ive": 398,
      "##ment": 399,
      "##ition": 400,
      "##ction": 401,
      "##ran": 402,
      "pain": 403,
      "##se": 404,
      "##ood": 405,
      "##art": 406,
      "well": 407,
      "##ov": 408,
      "de": 409,
      "##ound": 410,
      "##ult": 411,
      "normal": 412,
      "##ely": 413,
      "from": 414,
      "ha": 415,
      "##ard": 416,
      "##UR": 417,
      "##ip": 418,
      "sc": 419,
      "##ity": 420,
      "##ced": 421,
      "##terior": 422,
      "inf": 423,
      "##AL": 424,
      "##OS": 425,
      "rem": 426,
      "##ase": 427,
      "##EN": 428,
      "##inal": 429,
      "##omy": 430,
      "##ist": 431,
      "##ome": 432,
      "##ATION": 433,
      "##ision": 434,
      "ca": 435,
      "##ative": 436,
      "pre": 437,
      "##ich": 438,
      "##low": 439,
      "##roug": 440,
      "##hy": 441,
      "which": 442,
      "##ection": 443,
      "##IN": 444,
      "##xim": 445,
      "##ORY": 446,
      "##00": 447,
      "ob": 448,
      "##ag": 449,
      "##act": 450,
      "year": 451,
      "Th": 452,
      "##ign": 453,
      "ev": 454,
      "##ry": 455,
      "med": 456,
      "ext": 457,
      "##hes": 458,
      "##lu": 459,
      "##ib": 460,
      "##EP": 461,
      "rec": 462,
      "sy": 463,
      "##ub": 464,
      "cont": 465,
      "##ied": 466,
      "by": 467,
      "##ne": 468,
      "##ue": 469,
      "##OC": 470,
      "##ens": 471,
      "any": 472,
      "##ual": 473,
      "##GN": 474,
      "HI": 475,
      "##ost": 476,
      "res": 477,
      "tim": 478,
      "##ass": 479,
      "##cop": 480,
      "SEP": 481,
      "have": 482,
      "HIST": 483,
      "HISTORY": 484,
      "##fter": 485,
      "un": 486,
      "##PER": 487,
      "##ack": 488,
      "##iss": 489,
      "##ru": 490,
      "##ther": 491,
      "it": 492,
      "##ide": 493,
      "sub": 494,
      "This": 495,
      "hist": 496,
      "le": 497,
      "##tal": 498,
      "##VE": 499,
      "##so": 500,
      "##ond": 501,
      "##and": 502,
      "but": 503,
      "comp": 504,
      "##osis": 505,
      "history": 506,
      "##GNOS": 507,
      "##ap": 508,
      "DIA": 509,
      "DIAGNOS": 510,
      "und": 511,
      "noted": 512,
      "##rem": 513,
      "##ade": 514,
      "##reat": 515,
      "##ab": 516,
      "remov": 517,
      "##ould": 518,
      "hem": 519,
      "##ations": 520,
      "##vi": 521,
      "##tery": 522,
      "inter": 523,
      "##ep": 524,
      "ac": 525,
      "sur": 526,
      "##ness": 527,
      "##IS": 528,
      "im": 529,
      "under": 530,
      "fas": 531,
      "##cedure": 532,
      "##ric": 533,
      "##int": 534,
      "also": 535,
      "time": 536,
      "##ron": 537,
      "tak": 538,
      "##rap": 539,
      "##rough": 540,
      "##ery": 541,
      "mg": 542,
      "##kin": 543,
      "##EDUR": 544,
      "##OCEDUR": 545,
      "##ail": 546,
      "procedure": 547,
      "pres": 548,
      "old": 549,
      "been": 550,
      "ro": 551,
      "will": 552,
      "PROCEDUR": 553,
      "##ilateral": 554,
      "hy": 555,
      "##ert": 556,
      "appro": 557,
      "##nt": 558,
      "##ollow": 559,
      "perf": 560,
      "do": 561,
      "cor": 562,
      "incision": 563,
      "##ATIVE": 564,
      "##der": 565,
      "##ite": 566,
      "through": 567,
      "into": 568,
      "##PERATIVE": 569,
      "##ating": 570,
      "disc": 571,
      "##ormed": 572,
      "cons": 573,
      "##ire": 574,
      "##ile": 575,
      "##ained": 576,
      "using": 577,
      "##our": 578,
      "##oscop": 579,
      "10": 580,
      "all": 581,
      "without": 582,
      "##rans": 583,
      "##ific": 584,
      "day": 585,
      "sign": 586,
      "rep": 587,
      "up": 588,
      "some": 589,
      "##age": 590,
      "PROCEDURE": 591,
      "##ENT": 592,
      "low": 593,
      "##ital": 594,
      "used": 595,
      "car": 596,
      "removed": 597,
      "##oint": 598,
      "##OPERATIVE": 599,
      "over": 600,
      "##ected": 601,
      "##ence": 602,
      "clos": 603,
      "##ks": 604,
      "##ob": 605,
      "ret": 606,
      "##own": 607,
      "trans": 608,
      "##erv": 609,
      "##dom": 610,
      "can": 611,
      "##ff": 612,
      "##ale": 613,
      "room": 614,
      "##ract": 615,
      "sut": 616,
      "##ions": 617,
      "whe": 618,
      "out": 619,
      "##vel": 620,
      "ag": 621,
      "##ately": 622,
      "##ong": 623,
      "che": 624,
      "##__": 625,
      "end": 626,
      "##ys": 627,
      "bilateral": 628,
      "##ros": 629,
      "##itis": 630,
      "##usc": 631,
      "##ement": 632,
      "ins": 633,
      "skin": 634,
      "At": 635,
      "##ATIONS": 636,
      "need": 637,
      "there": 638,
      "##ors": 639,
      "follow": 640,
      "##oid": 641,
      "anterior": 642,
      "##ral": 643,
      "sec": 644,
      "fe": 645,
      "##onary": 646,
      "fem": 647,
      "We": 648,
      "##ft": 649,
      "artery": 650,
      "##cy": 651,
      "position": 652,
      "##dition": 653,
      "##ICAL": 654,
      "surg": 655,
      "suture": 656,
      "##uc": 657,
      "sm": 658,
      "performed": 659,
      "dia": 660,
      "##rac": 661,
      "mm": 662,
      "pul": 663,
      "OF": 664,
      "present": 665,
      "##amin": 666,
      "##ild": 667,
      "##ore": 668,
      "##ease": 669,
      "oper": 670,
      "##oth": 671,
      "##ps": 672,
      "obt": 673,
      "##ove": 674,
      "##fic": 675,
      "##lex": 676,
      "anest": 677,
      "tw": 678,
      "en": 679,
      "##AM": 680,
      "cat": 681,
      "##rol": 682,
      "##lear": 683,
      "##ently": 684,
      "back": 685,
      "##let": 686,
      "disease": 687,
      "show": 688,
      "##use": 689,
      "blood": 690,
      "ele": 691,
      "##MP": 692,
      "##ESS": 693,
      "Ne": 694,
      "taken": 695,
      "In": 696,
      "##ding": 697,
      "pr": 698,
      "abdom": 699,
      "lateral": 700,
      "##urn": 701,
      "##ree": 702,
      "##ICATIONS": 703,
      "who": 704,
      "##eneral": 705,
      "##olog": 706,
      "##ized": 707,
      "col": 708,
      "ster": 709,
      "appear": 710,
      "##AR": 711,
      "##ectomy": 712,
      "##ryl": 713,
      "DIAGNOSIS": 714,
      "compl": 715,
      "##its": 716,
      "##ogra": 717,
      "tiss": 718,
      "##ane": 719,
      "after": 720,
      "reg": 721,
      "Dr": 722,
      "##hesia": 723,
      "##urr": 724,
      "area": 725,
      "mid": 726,
      "press": 727,
      "lower": 728,
      "##pper": 729,
      "##heter": 730,
      "dec": 731,
      "##ang": 732,
      "##ont": 733,
      "##ym": 734,
      "inj": 735,
      "posterior": 736,
      "##hion": 737,
      "##ased": 738,
      "fashion": 739,
      "##ities": 740,
      "pressure": 741,
      "An": 742,
      "mass": 743,
      "##xt": 744,
      "MED": 745,
      "diss": 746,
      "##ud": 747,
      "dif": 748,
      "stat": 749,
      "##ardi": 750,
      "catheter": 751,
      "##ark": 752,
      "AN": 753,
      "down": 754,
      "extrem": 755,
      "adm": 756,
      "sym": 757,
      "approxim": 758,
      "EX": 759,
      "##ificant": 760,
      "upper": 761,
      "##AT": 762,
      "##gative": 763,
      "##hed": 764,
      "##ie": 765,
      "##ler": 766,
      "##rain": 767,
      "##ren": 768,
      "made": 769,
      "##pir": 770,
      "##cut": 771,
      "cm": 772,
      "##pped": 773,
      "##alu": 774,
      "post": 775,
      "200": 776,
      "##cer": 777,
      "qu": 778,
      "mon": 779,
      "Vic": 780,
      "IN": 781,
      "vis": 782,
      "second": 783,
      "##ose": 784,
      "two": 785,
      "min": 786,
      "##oral": 787,
      "fl": 788,
      "##itt": 789,
      "one": 790,
      "##arg": 791,
      "12": 792,
      "cou": 793,
      "##fer": 794,
      "##ified": 795,
      "did": 796,
      "wee": 797,
      "##alp": 798,
      "##ace": 799,
      "head": 800,
      "so": 801,
      "does": 802,
      "CO": 803,
      "id": 804,
      "musc": 805,
      "##LL": 806,
      "tend": 807,
      "am": 808,
      "##umb": 809,
      "##yl": 810,
      "closed": 811,
      "evid": 812,
      "##ok": 813,
      "##nal": 814,
      "##up": 815,
      "obtained": 816,
      "##very": 817,
      "##ath": 818,
      "##ning": 819,
      "Vicryl": 820,
      "tub": 821,
      "distal": 822,
      "me": 823,
      "##EC": 824,
      "##ix": 825,
      "hyper": 826,
      "den": 827,
      "##ications": 828,
      "mot": 829,
      "##erg": 830,
      "##arge": 831,
      "##ention": 832,
      "##oper": 833,
      "##gn": 834,
      "giv": 835,
      "##ach": 836,
      "wor": 837,
      "##tic": 838,
      "tissue": 839,
      "care": 840,
      "ep": 841,
      "significant": 842,
      "##oma": 843,
      "evalu": 844,
      "ident": 845,
      "les": 846,
      "evidence": 847,
      "##ers": 848,
      "chest": 849,
      "On": 850,
      "operating": 851,
      "other": 852,
      "After": 853,
      "def": 854,
      "##ptom": 855,
      "##adder": 856,
      "imp": 857,
      "##veal": 858,
      "##eck": 859,
      "##cess": 860,
      "side": 861,
      "##uss": 862,
      "port": 863,
      "att": 864,
      "complet": 865,
      "##air": 866,
      "ir": 867,
      "##ved": 868,
      "anesthesia": 869,
      "##ute": 870,
      "##ll": 871,
      "lig": 872,
      "##osp": 873,
      "##ension": 874,
      "li": 875,
      "##und": 876,
      "##ximal": 877,
      "good": 878,
      "met": 879,
      "##RI": 880,
      "##stru": 881,
      "level": 882,
      "##ms": 883,
      "approximately": 884,
      "##asis": 885,
      "##ons": 886,
      "##aneous": 887,
      "small": 888,
      "about": 889,
      "##ium": 890,
      "contin": 891,
      "##ency": 892,
      "##ance": 893,
      "reveal": 894,
      "##eding": 895,
      "given": 896,
      "sin": 897,
      "##iop": 898,
      "drap": 899,
      "both": 900,
      "wound": 901,
      "##vious": 902,
      "##ock": 903,
      "sterile": 904,
      "flu": 905,
      "PO": 906,
      "condition": 907,
      "PRE": 908,
      "EXAM": 909,
      "##LA": 910,
      "##ving": 911,
      "symptom": 912,
      "dr": 913,
      "proximal": 914,
      "bilaterally": 915,
      "##oscopy": 916,
      "##atic": 917,
      "##usion": 918,
      "15": 919,
      "clear": 920,
      "##ein": 921,
      "##ause": 922,
      "##gh": 923,
      "par": 924,
      "done": 925,
      "medial": 926,
      "man": 927,
      "POST": 928,
      "surgery": 929,
      "report": 930,
      "seen": 931,
      "des": 932,
      "very": 933,
      "##ocal": 934,
      "ble": 935,
      "inclu": 936,
      "##oph": 937,
      "ed": 938,
      "rad": 939,
      "test": 940,
      "##ficult": 941,
      "ind": 942,
      "cy": 943,
      "##ization": 944,
      "prepped": 945,
      "op": 946,
      "##EM": 947,
      "##aily": 948,
      "daily": 949,
      "##ust": 950,
      "intact": 951,
      "##ospital": 952,
      "stable": 953,
      "##ole": 954,
      "difficult": 955,
      "mild": 956,
      "vent": 957,
      "St": 958,
      "##sy": 959,
      "##rig": 960,
      "##cc": 961,
      "##ily": 962,
      "negative": 963,
      "##ange": 964,
      "20": 965,
      "##day": 966,
      "heart": 967,
      "It": 968,
      "PREOPERATIVE": 969,
      "##atory": 970,
      "##are": 971,
      "female": 972,
      "super": 973,
      "act": 974,
      "draped": 975,
      "ey": 976,
      "POSTOPERATIVE": 977,
      "##ided": 978,
      "##ible": 979,
      "##IT": 980,
      "##uring": 981,
      "dist": 982,
      "##rache": 983,
      "sup": 984,
      "PA": 985,
      "ant": 986,
      "toler": 987,
      "symptoms": 988,
      "##EST": 989,
      "##ronic": 990,
      "discuss": 991,
      "##ars": 992,
      "##athy": 993,
      "cal": 994,
      "subcut": 995,
      "Left": 996,
      "identified": 997,
      "##ures": 998,
      "##aine": 999,
      "##unction": 1000,
      "fasc": 1001,
      "ass": 1002,
      "##erve": 1003,
      "ris": 1004,
      "##ried": 1005,
      "kne": 1006,
      "Her": 1007,
      "sw": 1008,
      "##oss": 1009,
      "##ervical": 1010,
      "##icular": 1011,
      "within": 1012,
      "##urther": 1013,
      "bone": 1014,
      "##otomy": 1015,
      "##ression": 1016,
      "rate": 1017,
      "showed": 1018,
      "em": 1019,
      "##ian": 1020,
      "##ful": 1021,
      "##rought": 1022,
      "brought": 1023,
      "##oot": 1024,
      "##reased": 1025,
      "visual": 1026,
      "should": 1027,
      "##str": 1028,
      "##pect": 1029,
      "##ology": 1030,
      "neck": 1031,
      "##cted": 1032,
      "##otic": 1033,
      "insert": 1034,
      "di": 1035,
      "above": 1036,
      "AB": 1037,
      "##ech": 1038,
      "His": 1039,
      "bleeding": 1040,
      "##LO": 1041,
      "##ured": 1042,
      "DIAGNOSES": 1043,
      "point": 1044,
      "##ice": 1045,
      "##TION": 1046,
      "denies": 1047,
      "##operative": 1048,
      "##iqu": 1049,
      "would": 1050,
      "exc": 1051,
      "month": 1052,
      "##ever": 1053,
      "coronary": 1054,
      "joint": 1055,
      "None": 1056,
      "him": 1057,
      "found": 1058,
      "occ": 1059,
      "##ull": 1060,
      "ref": 1061,
      "than": 1062,
      "##amination": 1063,
      "25": 1064,
      "RE": 1065,
      "##til": 1066,
      "pat": 1067,
      "appl": 1068,
      "fir": 1069,
      "bladder": 1070,
      "##asc": 1071,
      "Right": 1072,
      "##owel": 1073,
      "##eg": 1074,
      "##ise": 1075,
      "prior": 1076,
      "ang": 1077,
      "##ounds": 1078,
      "##roc": 1079,
      "ul": 1080,
      "##ending": 1081,
      "nerve": 1082,
      "red": 1083,
      "##ural": 1084,
      "##rapy": 1085,
      "treat": 1086,
      "disch": 1087,
      "##ended": 1088,
      "##ening": 1089,
      "##ras": 1090,
      "tube": 1091,
      "long": 1092,
      "##igh": 1093,
      "years": 1094,
      "##ross": 1095,
      "intra": 1096,
      "##ste": 1097,
      "##ION": 1098,
      "abdominal": 1099,
      "##les": 1100,
      "muscle": 1101,
      "ventric": 1102,
      "elev": 1103,
      "vein": 1104,
      "##IL": 1105,
      "further": 1106,
      "##ious": 1107,
      "##arkable": 1108,
      "proble": 1109,
      "irrig": 1110,
      "knee": 1111,
      "mod": 1112,
      "##GS": 1113,
      "##ened": 1114,
      "##red": 1115,
      "##co": 1116,
      "needle": 1117,
      "dire": 1118,
      "previous": 1119,
      "General": 1120,
      "##monary": 1121,
      "##rib": 1122,
      "fract": 1123,
      "##roid": 1124,
      "IV": 1125,
      "infer": 1126,
      "more": 1127,
      "gu": 1128,
      "##ially": 1129,
      "deg": 1130,
      "hypert": 1131,
      "foot": 1132,
      "##ema": 1133,
      "poss": 1134,
      "biop": 1135,
      "po": 1136,
      "tolerated": 1137,
      "##ke": 1138,
      "##ament": 1139,
      "##IE": 1140,
      "CT": 1141,
      "syst": 1142,
      "work": 1143,
      "fib": 1144,
      "##roph": 1145,
      "days": 1146,
      "##rial": 1147,
      "HE": 1148,
      "##line": 1149,
      "off": 1150,
      "##itive": 1151,
      "dissection": 1152,
      "11": 1153,
      "##pri": 1154,
      "##med": 1155,
      "##elv": 1156,
      "##ator": 1157,
      "PAST": 1158,
      "##ame": 1159,
      "gra": 1160,
      "##enal": 1161,
      "applied": 1162,
      "Normal": 1163,
      "##asal": 1164,
      "part": 1165,
      "##ize": 1166,
      "palp": 1167,
      "##ised": 1168,
      "use": 1169,
      "##hys": 1170,
      "last": 1171,
      "evaluation": 1172,
      "##HES": 1173,
      "gl": 1174,
      "ur": 1175,
      "##ymph": 1176,
      "ligament": 1177,
      "##tered": 1178,
      "##ax": 1179,
      "##remarkable": 1180,
      "acute": 1181,
      "ANEST": 1182,
      "today": 1183,
      "sten": 1184,
      "COMP": 1185,
      "##ody": 1186,
      "##pted": 1187,
      "bec": 1188,
      "treatment": 1189,
      "where": 1190,
      "ANESTHES": 1191,
      "ANESTHESIA": 1192,
      "continu": 1193,
      "general": 1194,
      "fascia": 1195,
      "past": 1196,
      "rel": 1197,
      "##ature": 1198,
      "discussed": 1199,
      "abdomen": 1200,
      "ben": 1201,
      "##ew": 1202,
      "mult": 1203,
      "##av": 1204,
      "scre": 1205,
      "lim": 1206,
      "bowel": 1207,
      "cardi": 1208,
      "chang": 1209,
      "##normal": 1210,
      "##gth": 1211,
      "##ostasis": 1212,
      "difficulty": 1213,
      "diagn": 1214,
      "inferior": 1215,
      "##HY": 1216,
      "neu": 1217,
      "cervical": 1218,
      "##opathy": 1219,
      "##owever": 1220,
      "exp": 1221,
      "##aryn": 1222,
      "tem": 1223,
      "##reath": 1224,
      "##view": 1225,
      "##ility": 1226,
      "##iple": 1227,
      "desc": 1228,
      "extremity": 1229,
      "eye": 1230,
      "first": 1231,
      "again": 1232,
      "weight": 1233,
      "##iated": 1234,
      "my": 1235,
      "usual": 1236,
      "uter": 1237,
      "bet": 1238,
      "##ogram": 1239,
      "lymph": 1240,
      "reco": 1241,
      "bre": 1242,
      "stenosis": 1243,
      "male": 1244,
      "infection": 1245,
      "non": 1246,
      "hour": 1247,
      "##ET": 1248,
      "##vere": 1249,
      "MEDICATIONS": 1250,
      "breath": 1251,
      "19": 1252,
      "##par": 1253,
      "##yp": 1254,
      "table": 1255,
      "drain": 1256,
      "kn": 1257,
      "##ascular": 1258,
      "dys": 1259,
      "##au": 1260,
      "appropri": 1261,
      "##IES": 1262,
      "ph": 1263,
      "states": 1264,
      "aspect": 1265,
      "##HYS": 1266,
      "##ung": 1267,
      "PHYS": 1268,
      "adv": 1269,
      "##LAN": 1270,
      "##aint": 1271,
      "weeks": 1272,
      "##OM": 1273,
      "aort": 1274,
      "##____": 1275,
      "count": 1276,
      "PHYSICAL": 1277,
      "go": 1278,
      "##ough": 1279,
      "loss": 1280,
      "##ick": 1281,
      "exam": 1282,
      "mL": 1283,
      "aw": 1284,
      "##iting": 1285,
      "co": 1286,
      "##round": 1287,
      "abnormal": 1288,
      "chronic": 1289,
      "home": 1290,
      "start": 1291,
      "place": 1292,
      "##velop": 1293,
      "##du": 1294,
      "##omp": 1295,
      "colon": 1296,
      "##unt": 1297,
      "when": 1298,
      "superior": 1299,
      "PER": 1300,
      "##thm": 1301,
      "subcutaneous": 1302,
      "sat": 1303,
      "##eb": 1304,
      "oste": 1305,
      "Ex": 1306,
      "short": 1307,
      "see": 1308,
      "Patient": 1309,
      "PLAN": 1310,
      "revealed": 1311,
      "fracture": 1312,
      "femoral": 1313,
      "three": 1314,
      "phys": 1315,
      "##INATION": 1316,
      "es": 1317,
      "##uff": 1318,
      "##raction": 1319,
      "status": 1320,
      "eff": 1321,
      "run": 1322,
      "##ates": 1323,
      "pulmonary": 1324,
      "##racheal": 1325,
      "All": 1326,
      "consist": 1327,
      "##ferred": 1328,
      "sutures": 1329,
      "##urned": 1330,
      "large": 1331,
      "EXAMINATION": 1332,
      "recovery": 1333,
      "30": 1334,
      "IMP": 1335,
      "##row": 1336,
      "examination": 1337,
      "ago": 1338,
      "lesion": 1339,
      "##ater": 1340,
      "may": 1341,
      "##ake": 1342,
      "edema": 1343,
      "develop": 1344,
      "nod": 1345,
      "dep": 1346,
      "##struction": 1347,
      "##urs": 1348,
      "##RESS": 1349,
      "fat": 1350,
      "##osed": 1351,
      "hospital": 1352,
      "FIN": 1353,
      "wall": 1354,
      "elect": 1355,
      "inserted": 1356,
      "acc": 1357,
      "C5": 1358,
      "could": 1359,
      "renal": 1360,
      "del": 1361,
      "##CU": 1362,
      "100": 1363,
      "site": 1364,
      "##ents": 1365,
      "##ically": 1366,
      "pass": 1367,
      "##ERG": 1368,
      "including": 1369,
      "problems": 1370,
      "##ex": 1371,
      "impro": 1372,
      "curr": 1373,
      "##AS": 1374,
      "supine": 1375,
      "if": 1376,
      "cut": 1377,
      "ray": 1378,
      "##DIN": 1379,
      "##enous": 1380,
      "tum": 1381,
      "##RESSION": 1382,
      "fin": 1383,
      "##omm": 1384,
      "##aining": 1385,
      "IMPRESSION": 1386,
      "week": 1387,
      "fluid": 1388,
      "hern": 1389,
      "##emb": 1390,
      "requ": 1391,
      "PRES": 1392,
      ").": 1393,
      "sl": 1394,
      "unremarkable": 1395,
      "ALL": 1396,
      "##bet": 1397,
      "secondary": 1398,
      "MRI": 1399,
      "cell": 1400,
      "hemat": 1401,
      "lob": 1402,
      "##ORM": 1403,
      "leg": 1404,
      "##ped": 1405,
      "changes": 1406,
      "screw": 1407,
      "13": 1408,
      "tendon": 1409,
      "rest": 1410,
      "##erm": 1411,
      "##ule": 1412,
      "prot": 1413,
      "hand": 1414,
      "cyst": 1415,
      "##ments": 1416,
      "total": 1417,
      "ALLERG": 1418,
      "therapy": 1419,
      "##reated": 1420,
      "##amily": 1421,
      "surgical": 1422,
      "carried": 1423,
      "##emia": 1424,
      "midline": 1425,
      "##itted": 1426,
      "##arged": 1427,
      "review": 1428,
      "respir": 1429,
      "cancer": 1430,
      "##ication": 1431,
      "##ternal": 1432,
      "##ally": 1433,
      "having": 1434,
      "##essel": 1435,
      "##hythm": 1436,
      "pelv": 1437,
      "conf": 1438,
      "ear": 1439,
      "##gest": 1440,
      "consent": 1441,
      "scan": 1442,
      "ple": 1443,
      "##ount": 1444,
      "spec": 1445,
      "Next": 1446,
      "##iotic": 1447,
      "##led": 1448,
      "white": 1449,
      "multiple": 1450,
      "##FORM": 1451,
      "FINDIN": 1452,
      "system": 1453,
      "biopsy": 1454,
      "C6": 1455,
      "PRESENT": 1456,
      "vessel": 1457,
      "FINDINGS": 1458,
      "medical": 1459,
      "IND": 1460,
      "##ocaine": 1461,
      "throughout": 1462,
      "complications": 1463,
      "##equ": 1464,
      "being": 1465,
      "severe": 1466,
      "due": 1467,
      "during": 1468,
      "MEDICAL": 1469,
      "able": 1470,
      "##NESS": 1471,
      "##phal": 1472,
      "dress": 1473,
      "arth": 1474,
      "ILL": 1475,
      "dors": 1476,
      "extremities": 1477,
      "ILLNESS": 1478,
      "val": 1479,
      "sa": 1480,
      "##rupted": 1481,
      "##irc": 1482,
      "antib": 1483,
      "18": 1484,
      "soft": 1485,
      "function": 1486,
      "ure": 1487,
      "##hen": 1488,
      "breast": 1489,
      "##FORMED": 1490,
      "##apar": 1491,
      "tumor": 1492,
      "spine": 1493,
      "##oscopic": 1494,
      "##utes": 1495,
      "control": 1496,
      "##cin": 1497,
      "fail": 1498,
      "##otracheal": 1499,
      "ALLERGIES": 1500,
      "##leep": 1501,
      "##ution": 1502,
      "##ograph": 1503,
      "##ting": 1504,
      "weak": 1505,
      "size": 1506,
      "##itor": 1507,
      "running": 1508,
      "##ink": 1509,
      "sinus": 1510,
      "##hol": 1511,
      "##TR": 1512,
      "14": 1513,
      "flex": 1514,
      "moder": 1515,
      "L5": 1516,
      "lesions": 1517,
      "medications": 1518,
      "##ysis": 1519,
      "PERFORMED": 1520,
      "along": 1521,
      "FOR": 1522,
      "followed": 1523,
      "appropriate": 1524,
      "now": 1525,
      "##elf": 1526,
      "plan": 1527,
      "minutes": 1528,
      "get": 1529,
      "##imal": 1530,
      "fever": 1531,
      "nasal": 1532,
      "##ient": 1533,
      "##ck": 1534,
      "interrupted": 1535,
      "injur": 1536,
      "calc": 1537,
      "##hem": 1538,
      "Once": 1539,
      "air": 1540,
      "amount": 1541,
      "##elt": 1542,
      "its": 1543,
      "##otid": 1544,
      "##IAL": 1545,
      "irrigated": 1546,
      "16": 1547,
      "##ITAL": 1548,
      "##met": 1549,
      "rect": 1550,
      "##ergency": 1551,
      "muc": 1552,
      "these": 1553,
      "addition": 1554,
      "appeared": 1555,
      "since": 1556,
      "lid": 1557,
      "body": 1558,
      "##ox": 1559,
      "50": 1560,
      "just": 1561,
      "##verse": 1562,
      "radi": 1563,
      "##arp": 1564,
      "##rop": 1565,
      "blade": 1566,
      "free": 1567,
      "portion": 1568,
      "##rench": 1569,
      "dem": 1570,
      "endotracheal": 1571,
      "French": 1572,
      "##ulation": 1573,
      "elevated": 1574,
      "##eld": 1575,
      "As": 1576,
      "##ord": 1577,
      "##ultation": 1578,
      "risks": 1579,
      "graft": 1580,
      "lo": 1581,
      "##ronch": 1582,
      "possible": 1583,
      "space": 1584,
      "family": 1585,
      "high": 1586,
      "sent": 1587,
      "hypertension": 1588,
      "meas": 1589,
      "region": 1590,
      "cc": 1591,
      "fac": 1592,
      "tender": 1593,
      "Ab": 1594,
      "rhythm": 1595,
      "##asty": 1596,
      "cord": 1597,
      "months": 1598,
      "##UN": 1599,
      "##orr": 1600,
      "caps": 1601,
      "SY": 1602,
      "antibiotic": 1603,
      "diabet": 1604,
      "HEENT": 1605,
      "gast": 1606,
      "stud": 1607,
      "##MENT": 1608,
      "repair": 1609,
      "admitted": 1610,
      "mor": 1611,
      "##urg": 1612,
      "age": 1613,
      "local": 1614,
      "##ues": 1615,
      "S1": 1616,
      "##ativ": 1617,
      "adequ": 1618,
      "full": 1619,
      "##ner": 1620,
      "##anced": 1621,
      "plate": 1622,
      "clam": 1623,
      "##rade": 1624,
      "##order": 1625,
      "aden": 1626,
      "expl": 1627,
      "placement": 1628,
      "ent": 1629,
      "cav": 1630,
      "inv": 1631,
      "comm": 1632,
      "benef": 1633,
      "sens": 1634,
      "##ula": 1635,
      "lab": 1636,
      "init": 1637,
      "dil": 1638,
      "##elling": 1639,
      "##itone": 1640,
      "##STEM": 1641,
      "typ": 1642,
      "because": 1643,
      "##amm": 1644,
      "##rolog": 1645,
      "##umbar": 1646,
      "CH": 1647,
      "SOC": 1648,
      "##sequ": 1649,
      "##neum": 1650,
      "SYSTEM": 1651,
      "lobe": 1652,
      "sleep": 1653,
      "sal": 1654,
      "sever": 1655,
      "40": 1656,
      "Ch": 1657,
      "SOCIAL": 1658,
      "##onstr": 1659,
      "##pple": 1660,
      "masses": 1661,
      "##ique": 1662,
      "four": 1663,
      "feel": 1664,
      "shoulder": 1665,
      "poly": 1666,
      "##ished": 1667,
      "external": 1668,
      "felt": 1669,
      "circ": 1670,
      "##VIE": 1671,
      "hours": 1672,
      "##VIEW": 1673,
      "anesthe": 1674,
      "AND": 1675,
      "weakness": 1676,
      "demonstr": 1677,
      "heal": 1678,
      "motion": 1679,
      "finding": 1680,
      "internal": 1681,
      "REVIEW": 1682,
      "vom": 1683,
      "signs": 1684,
      "GEN": 1685,
      "lay": 1686,
      "redu": 1687,
      "##ple": 1688,
      "lung": 1689,
      "hemostasis": 1690,
      "drug": 1691,
      "however": 1692,
      "around": 1693,
      "##lect": 1694,
      "##atars": 1695,
      "only": 1696,
      "arm": 1697,
      "discharge": 1698,
      "##fore": 1699,
      "deep": 1700,
      "dissected": 1701,
      "sim": 1702,
      "Al": 1703,
      "##alk": 1704,
      "rece": 1705,
      "times": 1706,
      "LA": 1707,
      "developed": 1708,
      "Follow": 1709,
      "gall": 1710,
      "distress": 1711,
      "infl": 1712,
      "Ad": 1713,
      "##OD": 1714,
      "proce": 1715,
      "thy": 1716,
      "##anc": 1717,
      "dressing": 1718,
      "##rect": 1719,
      "retract": 1720,
      "great": 1721,
      "cent": 1722,
      "##other": 1723,
      "SYSTEMS": 1724,
      "Un": 1725,
      "mur": 1726,
      "##SS": 1727,
      "##we": 1728,
      "murm": 1729,
      "increased": 1730,
      "##artment": 1731,
      "##ded": 1732,
      "arter": 1733,
      "##ender": 1734,
      "sheath": 1735,
      "moderate": 1736,
      "recomm": 1737,
      "cann": 1738,
      "aspir": 1739,
      "reported": 1740,
      "activ": 1741,
      "##wise": 1742,
      "##plant": 1743,
      "numb": 1744,
      "##rast": 1745,
      "CON": 1746,
      "vag": 1747,
      "##illary": 1748,
      "ES": 1749,
      "sol": 1750,
      "Bl": 1751,
      "prob": 1752,
      "##OSS": 1753,
      "ventricular": 1754,
      "##pon": 1755,
      "##unct": 1756,
      "peri": 1757,
      "prost": 1758,
      "##oscope": 1759,
      "##ndrom": 1760,
      "result": 1761,
      "##gan": 1762,
      "##ausea": 1763,
      "move": 1764,
      "sounds": 1765,
      "##fort": 1766,
      "ank": 1767,
      "metatars": 1768,
      "##cohol": 1769,
      "Hem": 1770,
      "most": 1771,
      "ABC": 1772,
      "injury": 1773,
      "proceed": 1774,
      "COMPL": 1775,
      "line": 1776,
      "failure": 1777,
      "light": 1778,
      "##tern": 1779,
      "##li": 1780,
      "flap": 1781,
      "advanced": 1782,
      "wire": 1783,
      "ap": 1784,
      "underw": 1785,
      "carotid": 1786,
      "quad": 1787,
      "started": 1788,
      "##ndrome": 1789,
      "clin": 1790,
      "vomiting": 1791,
      "stand": 1792,
      "transverse": 1793,
      "quest": 1794,
      "dorsal": 1795,
      "valve": 1796,
      "##ife": 1797,
      "respiratory": 1798,
      "emergency": 1799,
      "underwent": 1800,
      "following": 1801,
      "type": 1802,
      "L4": 1803,
      "mark": 1804,
      "pneum": 1805,
      "sug": 1806,
      "smok": 1807,
      "util": 1808,
      "##rit": 1809,
      "OPER": 1810,
      "##ene": 1811,
      "##uch": 1812,
      "alcohol": 1813,
      "##gress": 1814,
      "##CH": 1815,
      "direct": 1816,
      "##opl": 1817,
      "COMPLICATIONS": 1818,
      "they": 1819,
      "##icle": 1820,
      "##olic": 1821,
      "positive": 1822,
      "##plac": 1823,
      "tenderness": 1824,
      "##olar": 1825,
      "swelling": 1826,
      "guide": 1827,
      "allerg": 1828,
      "##ontin": 1829,
      "##ontender": 1830,
      "##ILY": 1831,
      "adequate": 1832,
      "FAM": 1833,
      "nausea": 1834,
      "sed": 1835,
      "##roscop": 1836,
      "##LOG": 1837,
      "FAMILY": 1838,
      "thor": 1839,
      "consistent": 1840,
      "DIS": 1841,
      "rele": 1842,
      "len": 1843,
      "Mar": 1844,
      "##ward": 1845,
      "##raum": 1846,
      "##ument": 1847,
      "##aly": 1848,
      "equ": 1849,
      "syndrome": 1850,
      "##ually": 1851,
      "##poral": 1852,
      "##nea": 1853,
      "diabetes": 1854,
      "saline": 1855,
      "So": 1856,
      "vert": 1857,
      "##man": 1858,
      "##arynx": 1859,
      "sac": 1860,
      "mucos": 1861,
      "##OLOG": 1862,
      "night": 1863,
      "fix": 1864,
      "##isf": 1865,
      "##ils": 1866,
      "INDICATIONS": 1867,
      "bel": 1868,
      "shows": 1869,
      "slight": 1870,
      "findings": 1871,
      "fre": 1872,
      "##rant": 1873,
      "##echn": 1874,
      "bronch": 1875,
      "stent": 1876,
      "II": 1877,
      "range": 1878,
      "##ool": 1879,
      "##ppro": 1880,
      "child": 1881,
      "headac": 1882,
      "te": 1883,
      "##ins": 1884,
      "atrial": 1885,
      "hyp": 1886,
      "circum": 1887,
      "hip": 1888,
      "##DI": 1889,
      "injected": 1890,
      "Pro": 1891,
      "careful": 1892,
      "offic": 1893,
      "spinal": 1894,
      "pulse": 1895,
      "sharp": 1896,
      "transferred": 1897,
      "admin": 1898,
      "ABD": 1899,
      "hyd": 1900,
      "Clear": 1901,
      "##iet": 1902,
      "##uter": 1903,
      "several": 1904,
      "##sequently": 1905,
      "BLO": 1906,
      "bed": 1907,
      "BLOOD": 1908,
      "##iat": 1909,
      "satisf": 1910,
      "SI": 1911,
      "##ages": 1912,
      "du": 1913,
      "passed": 1914,
      "bran": 1915,
      "##rease": 1916,
      "mother": 1917,
      "##dle": 1918,
      "##ritis": 1919,
      "epis": 1920,
      "angi": 1921,
      "shortness": 1922,
      "##perature": 1923,
      "##ener": 1924,
      "complaint": 1925,
      "mic": 1926,
      "rot": 1927,
      "##gment": 1928,
      "office": 1929,
      "C4": 1930,
      "techn": 1931,
      "Negative": 1932,
      "##ission": 1933,
      "length": 1934,
      "ASS": 1935,
      "Med": 1936,
      "confir": 1937,
      "lumbar": 1938,
      "recent": 1939,
      "appears": 1940,
      "nontender": 1941,
      "abs": 1942,
      "canal": 1943,
      "marg": 1944,
      "block": 1945,
      "electroc": 1946,
      "benefits": 1947,
      "LOSS": 1948,
      "##ield": 1949,
      "##izing": 1950,
      "##ney": 1951,
      "60": 1952,
      "##US": 1953,
      "contrast": 1954,
      "##orrh": 1955,
      "episod": 1956,
      "lapar": 1957,
      "turned": 1958,
      "deli": 1959,
      "##autery": 1960,
      "invol": 1961,
      "Cl": 1962,
      "Hist": 1963,
      "complete": 1964,
      "receiv": 1965,
      "##eat": 1966,
      "decreased": 1967,
      "injection": 1968,
      "uterus": 1969,
      "currently": 1970,
      "Hy": 1971,
      "##erc": 1972,
      "ureter": 1973,
      "Reg": 1974,
      "With": 1975,
      "##vers": 1976,
      "ach": 1977,
      "##oce": 1978,
      "##rine": 1979,
      "##CRI": 1980,
      "##ption": 1981,
      "Bilateral": 1982,
      "##ETA": 1983,
      "DES": 1984,
      "Pl": 1985,
      "ped": 1986,
      "ankle": 1987,
      "esoph": 1988,
      "OPERATION": 1989,
      "##opious": 1990,
      "##ween": 1991,
      "sept": 1992,
      "until": 1993,
      "##cinoma": 1994,
      "Hospital": 1995,
      "##ESSMENT": 1996,
      "ASSESSMENT": 1997,
      "kid": 1998,
      "##PTION": 1999,
      "Att": 2000,
      "tear": 2001,
      "ax": 2002,
      "##lying": 2003,
      "between": 2004,
      "hernia": 2005,
      "##CRIPTION": 2006,
      "##arr": 2007,
      "like": 2008,
      "##MAT": 2009,
      "check": 2010,
      "pers": 2011,
      "informed": 2012,
      "closure": 2013,
      "open": 2014,
      "satisfact": 2015,
      "tib": 2016,
      "##eth": 2017,
      "##urrent": 2018,
      "brain": 2019,
      "pounds": 2020,
      "##nel": 2021,
      "##ave": 2022,
      "once": 2023,
      "prim": 2024,
      "##INT": 2025,
      "aortic": 2026,
      "quadrant": 2027,
      "Su": 2028,
      "ST": 2029,
      "##wn": 2030,
      "SUR": 2031,
      "operative": 2032,
      "SURG": 2033,
      "det": 2034,
      "##face": 2035,
      "presented": 2036,
      "regular": 2037,
      "describ": 2038,
      "case": 2039,
      "##iew": 2040,
      "cough": 2041,
      "cavity": 2042,
      "Se": 2043,
      "fing": 2044,
      "change": 2045,
      "return": 2046,
      "##ebral": 2047,
      "SIGN": 2048,
      "VITAL": 2049,
      "av": 2050,
      "##ERAL": 2051,
      "DETA": 2052,
      "removal": 2053,
      "DESCRIPTION": 2054,
      "DETAIL": 2055,
      "##ber": 2056,
      "##ilar": 2057,
      "suction": 2058,
      "memb": 2059,
      "),": 2060,
      "base": 2061,
      "##min": 2062,
      "##illed": 2063,
      "visualized": 2064,
      "##de": 2065,
      "##acer": 2066,
      "##ram": 2067,
      "pack": 2068,
      "##rad": 2069,
      "History": 2070,
      "##rill": 2071,
      "physical": 2072,
      "morning": 2073,
      "sciss": 2074,
      "hel": 2075,
      "el": 2076,
      "##pproxim": 2077,
      "cle": 2078,
      "ill": 2079,
      "##ired": 2080,
      "monitor": 2081,
      "cardiac": 2082,
      "ABDOM": 2083,
      "##usp": 2084,
      "middle": 2085,
      "decomp": 2086,
      "dig": 2087,
      "##tras": 2088,
      "Ext": 2089,
      "##TIMAT": 2090,
      "GENERAL": 2091,
      "ESTIMAT": 2092,
      "ESTIMATED": 2093,
      "allow": 2094,
      "presents": 2095,
      "SIGNS": 2096,
      "24": 2097,
      "##ilt": 2098,
      "append": 2099,
      "##ography": 2100,
      "##ancy": 2101,
      "##ulum": 2102,
      "risk": 2103,
      "ras": 2104,
      "treated": 2105,
      "vision": 2106,
      "##asion": 2107,
      "ABDOMEN": 2108,
      "thick": 2109,
      "appar": 2110,
      "Soft": 2111,
      "scalp": 2112,
      "pot": 2113,
      "##ration": 2114,
      "admission": 2115,
      "discharged": 2116,
      "satisfactory": 2117,
      "##active": 2118,
      "metatarsal": 2119,
      "ser": 2120,
      "continued": 2121,
      "##CUL": 2122,
      "anesthetic": 2123,
      "##inary": 2124,
      "liv": 2125,
      "##ulated": 2126,
      "orient": 2127,
      "rea": 2128,
      "assoc": 2129,
      "##IM": 2130,
      "liver": 2131,
      "achie": 2132,
      "spe": 2133,
      "path": 2134,
      "you": 2135,
      "continue": 2136,
      "reports": 2137,
      "##tt": 2138,
      "Ster": 2139,
      "pen": 2140,
      "entire": 2141,
      "Attention": 2142,
      "div": 2143,
      "mal": 2144,
      "##itus": 2145,
      "##rees": 2146,
      "extens": 2147,
      "electrocautery": 2148,
      "##trasound": 2149,
      "##ings": 2150,
      "thyroid": 2151,
      "alert": 2152,
      "Sp": 2153,
      "ausc": 2154,
      "tun": 2155,
      "##hea": 2156,
      "taking": 2157,
      "##isc": 2158,
      "screws": 2159,
      "our": 2160,
      "sedation": 2161,
      "##ential": 2162,
      "##rength": 2163,
      "##ental": 2164,
      "##iquet": 2165,
      "wr": 2166,
      "sta": 2167,
      "hemorrh": 2168,
      "solution": 2169,
      "gro": 2170,
      "copious": 2171,
      "gras": 2172,
      "make": 2173,
      "prov": 2174,
      "underst": 2175,
      ").,": 2176,
      "carefully": 2177,
      "Cardi": 2178,
      "Int": 2179,
      "muscles": 2180,
      "reviewed": 2181,
      "##ism": 2182,
      "##ellent": 2183,
      "pelvis": 2184,
      "walk": 2185,
      "blunt": 2186,
      "##ez": 2187,
      "order": 2188,
      "gross": 2189,
      "view": 2190,
      "known": 2191,
      "##phalic": 2192,
      "health": 2193,
      "adminis": 2194,
      "scissors": 2195,
      "##onge": 2196,
      "instr": 2197,
      "##ills": 2198,
      "every": 2199,
      "##esis": 2200,
      "process": 2201,
      "resection": 2202,
      "subsequently": 2203,
      "Hyper": 2204,
      "Dep": 2205,
      "##rog": 2206,
      "##ird": 2207,
      "##ubated": 2208,
      "##ITI": 2209,
      "enl": 2210,
      "##icul": 2211,
      "adhes": 2212,
      "next": 2213,
      "##cl": 2214,
      "##vered": 2215,
      "attention": 2216,
      "equal": 2217,
      "each": 2218,
      "##of": 2219,
      "##br": 2220,
      "##uria": 2221,
      "lidocaine": 2222,
      "technique": 2223,
      "fall": 2224,
      "##bl": 2225,
      "progress": 2226,
      "##ification": 2227,
      "##LE": 2228,
      "##esthesia": 2229,
      "interv": 2230,
      "##atively": 2231,
      "received": 2232,
      "##atus": 2233,
      "associated": 2234,
      "less": 2235,
      "diagnosis": 2236,
      "clean": 2237,
      "##BC": 2238,
      "##ereb": 2239,
      "seem": 2240,
      "##ATORY": 2241,
      "##kely": 2242,
      "##onal": 2243,
      "vaginal": 2244,
      "Marc": 2245,
      "##sych": 2246,
      "##ted": 2247,
      "##ait": 2248,
      "##outh": 2249,
      "separ": 2250,
      "##sing": 2251,
      "##lob": 2252,
      "##xy": 2253,
      "##arding": 2254,
      "NEC": 2255,
      "##ysm": 2256,
      "reveals": 2257,
      "limits": 2258,
      "venous": 2259,
      "##omet": 2260,
      "stress": 2261,
      "##vix": 2262,
      "carp": 2263,
      "suggest": 2264,
      "Regular": 2265,
      "tunnel": 2266,
      "NECK": 2267,
      "Mon": 2268,
      "ma": 2269,
      "NE": 2270,
      "antibiotics": 2271,
      "kidney": 2272,
      "Marcaine": 2273,
      "administered": 2274,
      "peritone": 2275,
      "obstruction": 2276,
      "temporal": 2277,
      "additional": 2278,
      "Blood": 2279,
      "80": 2280,
      "areas": 2281,
      "root": 2282,
      "minimal": 2283,
      "completed": 2284,
      "degrees": 2285,
      "dry": 2286,
      "via": 2287,
      "stru": 2288,
      "##GE": 2289,
      "correct": 2290,
      "membran": 2291,
      "##read": 2292,
      "concer": 2293,
      "followup": 2294,
      "going": 2295,
      "Following": 2296,
      "main": 2297,
      "##oon": 2298,
      "strength": 2299,
      "dose": 2300,
      "mucosa": 2301,
      "##ranial": 2302,
      "marked": 2303,
      "Che": 2304,
      "##yn": 2305,
      "CAR": 2306,
      "##itation": 2307,
      "tons": 2308,
      "##eter": 2309,
      "##ited": 2310,
      "stit": 2311,
      "abnormalities": 2312,
      "##ester": 2313,
      "third": 2314,
      "implant": 2315,
      "##rophy": 2316,
      "murmur": 2317,
      "ov": 2318,
      "##ctive": 2319,
      "Neu": 2320,
      "flow": 2321,
      "what": 2322,
      "previously": 2323,
      "auscultation": 2324,
      "##rag": 2325,
      "still": 2326,
      "cuff": 2327,
      "##medi": 2328,
      "improve": 2329,
      "22": 2330,
      "SP": 2331,
      "##uration": 2332,
      "##ably": 2333,
      "attem": 2334,
      "tip": 2335,
      "##ITIES": 2336,
      "17": 2337,
      "cour": 2338,
      "##ered": 2339,
      "Then": 2340,
      "study": 2341,
      "_____": 2342,
      "sit": 2343,
      "laterally": 2344,
      "##bin": 2345,
      "doing": 2346,
      "##reas": 2347,
      "descending": 2348,
      "fluor": 2349,
      "central": 2350,
      "same": 2351,
      "EXTR": 2352,
      "manag": 2353,
      "EXTREM": 2354,
      "tissues": 2355,
      "urine": 2356,
      "call": 2357,
      "pal": 2358,
      "surface": 2359,
      "cult": 2360,
      "tourn": 2361,
      "##ardial": 2362,
      "excellent": 2363,
      "tourniquet": 2364,
      "##uinal": 2365,
      "opened": 2366,
      "supp": 2367,
      "##though": 2368,
      "##antar": 2369,
      "##them": 2370,
      "insp": 2371,
      "defect": 2372,
      "oriented": 2373,
      "tr": 2374,
      "##ind": 2375,
      "motor": 2376,
      "greater": 2377,
      "XY": 2378,
      "cart": 2379,
      "##go": 2380,
      "mmH": 2381,
      "##ae": 2382,
      "##onia": 2383,
      "08": 2384,
      "000": 2385,
      "Using": 2386,
      "ing": 2387,
      "##ARY": 2388,
      "EXTREMITIES": 2389,
      "Pul": 2390,
      "here": 2391,
      "##yst": 2392,
      "fixation": 2393,
      "carpal": 2394,
      "hol": 2395,
      "##oy": 2396,
      "XYZ": 2397,
      "ver": 2398,
      "##ASON": 2399,
      "field": 2400,
      "seiz": 2401,
      "##rod": 2402,
      "##ope": 2403,
      "disk": 2404,
      "needed": 2405,
      "REASON": 2406,
      "disorder": 2407,
      "##rosis": 2408,
      "secured": 2409,
      "mmHg": 2410,
      "bru": 2411,
      "vascular": 2412,
      "help": 2413,
      "##cept": 2414,
      "puls": 2415,
      "reduction": 2416,
      "LAB": 2417,
      "infilt": 2418,
      "medication": 2419,
      "##ability": 2420,
      "slightly": 2421,
      "occasion": 2422,
      "common": 2423,
      "questions": 2424,
      "gent": 2425,
      "sided": 2426,
      "##galy": 2427,
      "##ovie": 2428,
      "##omegaly": 2429,
      "likely": 2430,
      "Abdom": 2431,
      "NEUR": 2432,
      "Re": 2433,
      "Rec": 2434,
      "ball": 2435,
      "##gen": 2436,
      "##ling": 2437,
      "##ura": 2438,
      "new": 2439,
      "recently": 2440,
      "otherwise": 2441,
      "esophag": 2442,
      "struct": 2443,
      "End": 2444,
      "##SE": 2445,
      "oral": 2446,
      "Chest": 2447,
      "Den": 2448,
      "resol": 2449,
      "##lexes": 2450,
      "##arm": 2451,
      "##ident": 2452,
      "Sc": 2453,
      "round": 2454,
      "section": 2455,
      "##ring": 2456,
      "##ician": 2457,
      "indic": 2458,
      "##rillation": 2459,
      "achieved": 2460,
      "##ches": 2461,
      "##ipher": 2462,
      "across": 2463,
      "##LAINT": 2464,
      "active": 2465,
      "ulcer": 2466,
      "COMPLAINT": 2467,
      "aorta": 2468,
      "term": 2469,
      "##oglob": 2470,
      "carcinoma": 2471,
      "deform": 2472,
      "DAT": 2473,
      "dou": 2474,
      "ery": 2475,
      "##cision": 2476,
      "##way": 2477,
      "##imen": 2478,
      "possib": 2479,
      "##mb": 2480,
      "##omach": 2481,
      "ultrasound": 2482,
      "demonstrated": 2483,
      "prostate": 2484,
      "confirmed": 2485,
      "Bovie": 2486,
      "##romb": 2487,
      "completely": 2488,
      "directed": 2489,
      "mar": 2490,
      "much": 2491,
      "diet": 2492,
      "##aden": 2493,
      "compression": 2494,
      "better": 2495,
      "drainage": 2496,
      "frequ": 2497,
      "They": 2498,
      "##ocular": 2499,
      "##peri": 2500,
      "pregn": 2501,
      "diagnosed": 2502,
      "described": 2503,
      "##bladder": 2504,
      "fact": 2505,
      "lip": 2506,
      "##patient": 2507,
      "##eep": 2508,
      "##phrine": 2509,
      "##IEF": 2510,
      "CHIEF": 2511,
      "##KG": 2512,
      "##rodu": 2513,
      "take": 2514,
      "visualization": 2515,
      "decompression": 2516,
      "##ageal": 2517,
      "postoperative": 2518,
      "branch": 2519,
      "course": 2520,
      "bas": 2521,
      "fron": 2522,
      "spl": 2523,
      "##flex": 2524,
      "symmet": 2525,
      "SU": 2526,
      "upon": 2527,
      "thorac": 2528,
      "##oglobin": 2529,
      "TH": 2530,
      "bul": 2531,
      "mater": 2532,
      "note": 2533,
      "finger": 2534,
      "instrument": 2535,
      "adhesions": 2536,
      "replac": 2537,
      "insuff": 2538,
      "patell": 2539,
      "allergies": 2540,
      "stated": 2541,
      "while": 2542,
      "returned": 2543,
      "palpable": 2544,
      "grade": 2545,
      "##ina": 2546,
      "loc": 2547,
      "##arth": 2548,
      "subcuticular": 2549,
      "##OLOGIC": 2550,
      "90": 2551,
      "Care": 2552,
      "##oug": 2553,
      "primary": 2554,
      "concern": 2555,
      "Prol": 2556,
      "##idual": 2557,
      "although": 2558,
      "assist": 2559,
      "SURGICAL": 2560,
      "Mr": 2561,
      "bro": 2562,
      "sil": 2563,
      "wheez": 2564,
      "uterine": 2565,
      "pelvic": 2566,
      "Pos": 2567,
      "creat": 2568,
      "nerv": 2569,
      "few": 2570,
      "duct": 2571,
      "complaints": 2572,
      "inguinal": 2573,
      "##itud": 2574,
      "stage": 2575,
      "stomach": 2576,
      "unable": 2577,
      "erythem": 2578,
      "related": 2579,
      "Met": 2580,
      "scope": 2581,
      "fibrillation": 2582,
      "lymphaden": 2583,
      "activity": 2584,
      "stapl": 2585,
      "##ked": 2586,
      "##roat": 2587,
      "quite": 2588,
      "minute": 2589,
      "defic": 2590,
      "syn": 2591,
      "bon": 2592,
      "gallbladder": 2593,
      "incised": 2594,
      "standard": 2595,
      "divided": 2596,
      "Sub": 2597,
      "##rated": 2598,
      "degener": 2599,
      "##ARGE": 2600,
      "##CHARGE": 2601,
      "DATA": 2602,
      "cham": 2603,
      "perform": 2604,
      "##upils": 2605,
      "cur": 2606,
      "##junct": 2607,
      "evaluated": 2608,
      "manner": 2609,
      "neurolog": 2610,
      "DISCHARGE": 2611,
      "##ret": 2612,
      "##inephrine": 2613,
      "Prolene": 2614,
      "est": 2615,
      "##yt": 2616,
      "debr": 2617,
      "lead": 2618,
      "presc": 2619,
      "199": 2620,
      "##DS": 2621,
      "##wire": 2622,
      "##inine": 2623,
      "##arrhea": 2624,
      "maint": 2625,
      "reactive": 2626,
      "##astic": 2627,
      "initially": 2628,
      "Pr": 2629,
      "extended": 2630,
      "##ittle": 2631,
      "##ylon": 2632,
      "denied": 2633,
      "EKG": 2634,
      "However": 2635,
      "##jection": 2636,
      "hemost": 2637,
      "mob": 2638,
      "mouth": 2639,
      "##JEC": 2640,
      "##alf": 2641,
      "PROCEDURES": 2642,
      "detail": 2643,
      "cartil": 2644,
      "##junctiv": 2645,
      "70": 2646,
      "These": 2647,
      "##ively": 2648,
      "##luc": 2649,
      "pleas": 2650,
      "went": 2651,
      "##omfort": 2652,
      "gau": 2653,
      "pad": 2654,
      "inst": 2655,
      "improved": 2656,
      "##UE": 2657,
      "hep": 2658,
      "recurrent": 2659,
      "mes": 2660,
      "explained": 2661,
      "little": 2662,
      "##utery": 2663,
      "cautery": 2664,
      "2007": 2665,
      "tibial": 2666,
      "##ought": 2667,
      "32": 2668,
      "trache": 2669,
      "##TIVE": 2670,
      "##oste": 2671,
      "entered": 2672,
      "flus": 2673,
      "C7": 2674,
      "troc": 2675,
      "##aract": 2676,
      "##othe": 2677,
      "##rawn": 2678,
      "similar": 2679,
      "##oration": 2680,
      "##ump": 2681,
      "patent": 2682,
      "current": 2683,
      "var": 2684,
      "wors": 2685,
      "units": 2686,
      "capsule": 2687,
      "headaches": 2688,
      "nose": 2689,
      "altern": 2690,
      "##rips": 2691,
      "expos": 2692,
      "temperature": 2693,
      "gentle": 2694,
      "Res": 2695,
      "Sign": 2696,
      "cereb": 2697,
      "congest": 2698,
      "intrav": 2699,
      "physician": 2700,
      "layer": 2701,
      "##ingle": 2702,
      "##URSE": 2703,
      "fusion": 2704,
      "facial": 2705,
      "Hemostasis": 2706,
      "%.": 2707,
      "eas": 2708,
      "thromb": 2709,
      "began": 2710,
      "COURSE": 2711,
      "epid": 2712,
      "epinephrine": 2713,
      "below": 2714,
      "pregnancy": 2715,
      "##oley": 2716,
      "Dec": 2717,
      "##sp": 2718,
      "##astom": 2719,
      "##cyst": 2720,
      "Foley": 2721,
      "##pass": 2722,
      "bypass": 2723,
      "numbness": 2724,
      "##AC": 2725,
      "form": 2726,
      "chole": 2727,
      "images": 2728,
      "Supple": 2729,
      "##bing": 2730,
      "##lux": 2731,
      "feet": 2732,
      "diarrhea": 2733,
      "effusion": 2734,
      "##xygen": 2735,
      "nylon": 2736,
      "##bul": 2737,
      "hemoglobin": 2738,
      "depression": 2739,
      "band": 2740,
      "referred": 2741,
      "such": 2742,
      "LABOR": 2743,
      "##ipheral": 2744,
      "put": 2745,
      "##ges": 2746,
      "plantar": 2747,
      "segment": 2748,
      "inflamm": 2749,
      "pathology": 2750,
      "compon": 2751,
      "enc": 2752,
      "urinary": 2753,
      "##mbil": 2754,
      "##UL": 2755,
      "anastom": 2756,
      "##ondyl": 2757,
      "indu": 2758,
      "##ocephalic": 2759,
      "##ying": 2760,
      "gastro": 2761,
      "SPEC": 2762,
      "Post": 2763,
      "Sh": 2764,
      "##ires": 2765,
      "deformity": 2766,
      "pleasant": 2767,
      "cort": 2768,
      "nec": 2769,
      "insertion": 2770,
      "partial": 2771,
      "grasped": 2772,
      "Monoc": 2773,
      "slow": 2774,
      "##BJEC": 2775,
      "##BJECTIVE": 2776,
      "26": 2777,
      "created": 2778,
      "nar": 2779,
      "recommended": 2780,
      "##raumatic": 2781,
      "scalpel": 2782,
      "Monocryl": 2783,
      "uln": 2784,
      "##iatric": 2785,
      "creatinine": 2786,
      "##lected": 2787,
      "Anesthesia": 2788,
      "##aqu": 2789,
      "stro": 2790,
      "before": 2791,
      "catheterization": 2792,
      "Department": 2793,
      "erythema": 2794,
      "LABORATORY": 2795,
      "##ART": 2796,
      "OPERATIVE": 2797,
      "rub": 2798,
      "dev": 2799,
      "##DIO": 2800,
      "##zen": 2801,
      ".\"": 2802,
      "cre": 2803,
      "vessels": 2804,
      "Chronic": 2805,
      "ABCD": 2806,
      "nerves": 2807,
      "chamber": 2808,
      "saw": 2809,
      "75": 2810,
      "T1": 2811,
      "five": 2812,
      "##ervix": 2813,
      "Non": 2814,
      "##used": 2815,
      "effect": 2816,
      "hematoma": 2817,
      "Other": 2818,
      "##ached": 2819,
      "07": 2820,
      "later": 2821,
      "##lor": 2822,
      "discomfort": 2823,
      "period": 2824,
      "came": 2825,
      "men": 2826,
      "near": 2827,
      "##RA": 2828,
      "##ICATION": 2829,
      "visit": 2830,
      "ech": 2831,
      "set": 2832,
      "##rec": 2833,
      "const": 2834,
      "immedi": 2835,
      "coll": 2836,
      "##ulin": 2837,
      "clamp": 2838,
      "##ott": 2839,
      "##ider": 2840,
      "obvious": 2841,
      "guidewire": 2842,
      "LUN": 2843,
      "Per": 2844,
      "psych": 2845,
      "single": 2846,
      "##enter": 2847,
      "##oll": 2848,
      "complex": 2849,
      "##entially": 2850,
      "##ank": 2851,
      "unc": 2852,
      "balloon": 2853,
      "half": 2854,
      "##hat": 2855,
      "##az": 2856,
      "##auc": 2857,
      "##itamin": 2858,
      "##CULAR": 2859,
      "PT": 2860,
      "##vent": 2861,
      "obs": 2862,
      "degree": 2863,
      "neuro": 2864,
      "ulnar": 2865,
      "C3": 2866,
      "##anosis": 2867,
      "withd": 2868,
      "except": 2869,
      "##structed": 2870,
      "management": 2871,
      "remove": 2872,
      "distally": 2873,
      "controlled": 2874,
      "lymphadenopathy": 2875,
      "Neck": 2876,
      "susp": 2877,
      "##iency": 2878,
      "##cent": 2879,
      "exerc": 2880,
      "twice": 2881,
      "recommend": 2882,
      "results": 2883,
      "LUNGS": 2884,
      "45": 2885,
      "lamin": 2886,
      "way": 2887,
      "ligated": 2888,
      "assess": 2889,
      "PS": 2890,
      "##ocardi": 2891,
      "apprec": 2892,
      "pneumonia": 2893,
      "utilizing": 2894,
      "release": 2895,
      "Tem": 2896,
      "ili": 2897,
      "##ored": 2898,
      "stool": 2899,
      "2008": 2900,
      "rh": 2901,
      "vol": 2902,
      "##ains": 2903,
      "diam": 2904,
      "##ASCULAR": 2905,
      "vertebral": 2906,
      "bit": 2907,
      "umbil": 2908,
      "##att": 2909,
      "##oids": 2910,
      "CONS": 2911,
      "Es": 2912,
      "REC": 2913,
      "toe": 2914,
      "##assium": 2915,
      "CARDIO": 2916,
      "pac": 2917,
      "experi": 2918,
      "chills": 2919,
      "##ces": 2920,
      "##ressed": 2921,
      "diff": 2922,
      "include": 2923,
      "speech": 2924,
      "Hear": 2925,
      "##ril": 2926,
      "##tim": 2927,
      "##ather": 2928,
      "##olateral": 2929,
      "remaining": 2930,
      "nodes": 2931,
      "bony": 2932,
      "poor": 2933,
      "silk": 2934,
      "six": 2935,
      "##set": 2936,
      "##VASCULAR": 2937,
      "##ipolar": 2938,
      "reapproxim": 2939,
      "lacer": 2940,
      "clinic": 2941,
      "Denies": 2942,
      "EM": 2943,
      "counts": 2944,
      "osteop": 2945,
      "movements": 2946,
      "##reasing": 2947,
      "##lated": 2948,
      "fore": 2949,
      "testing": 2950,
      "irrigation": 2951,
      "CUR": 2952,
      "ten": 2953,
      "thin": 2954,
      "##raight": 2955,
      "##allow": 2956,
      "##ologist": 2957,
      "appearing": 2958,
      "abscess": 2959,
      "CARDIOVASCULAR": 2960,
      "grad": 2961,
      "##RENT": 2962,
      "iss": 2963,
      "##ormocephalic": 2964,
      "##ested": 2965,
      "sched": 2966,
      "##eps": 2967,
      "Anterior": 2968,
      "proximally": 2969,
      "gentleman": 2970,
      "aff": 2971,
      "##aring": 2972,
      "throat": 2973,
      "CURRENT": 2974,
      "cervix": 2975,
      "lum": 2976,
      "cyanosis": 2977,
      "Steri": 2978,
      "cure": 2979,
      "hard": 2980,
      "##old": 2981,
      "retracted": 2982,
      "##wards": 2983,
      "pulses": 2984,
      "wrist": 2985,
      "structures": 2986,
      "nond": 2987,
      "##ptic": 2988,
      "ventricle": 2989,
      "23": 2990,
      "asked": 2991,
      "adj": 2992,
      "enlarged": 2993,
      "stitch": 2994,
      "Abdomen": 2995,
      "GI": 2996,
      "oxygen": 2997,
      "excised": 2998,
      "##hal": 2999,
      "excision": 3000,
      "28": 3001,
      "##KIN": 3002,
      "##ugh": 3003,
      "##ribut": 3004,
      "biops": 3005,
      "systolic": 3006,
      "pleural": 3007,
      "understand": 3008,
      "tract": 3009,
      "##bow": 3010,
      "##ume": 3011,
      "##ostomy": 3012,
      "##ropharynx": 3013,
      "Am": 3014,
      "##oman": 3015,
      "##ifth": 3016,
      "scar": 3017,
      "lives": 3018,
      "esophagus": 3019,
      "Pre": 3020,
      "hall": 3021,
      "##ias": 3022,
      "##rot": 3023,
      "obstru": 3024,
      "contact": 3025,
      "##operatively": 3026,
      "superfic": 3027,
      "node": 3028,
      "##aby": 3029,
      "close": 3030,
      "regarding": 3031,
      "Examination": 3032,
      "##PI": 3033,
      "##head": 3034,
      "them": 3035,
      "##hyt": 3036,
      "##ember": 3037,
      "specimen": 3038,
      "inspected": 3039,
      "##lucose": 3040,
      "intravenous": 3041,
      "If": 3042,
      "fair": 3043,
      "osteotomy": 3044,
      "trocar": 3045,
      "anemia": 3046,
      "##rile": 3047,
      "##erved": 3048,
      "sensation": 3049,
      "utilized": 3050,
      "teeth": 3051,
      "membranes": 3052,
      "bic": 3053,
      "focal": 3054,
      "told": 3055,
      "potassium": 3056,
      "easily": 3057,
      "anastomosis": 3058,
      "Surg": 3059,
      "##acent": 3060,
      "Mild": 3061,
      "Rep": 3062,
      "##sw": 3063,
      "21": 3064,
      "Ar": 3065,
      "##augh": 3066,
      "##otor": 3067,
      "##ides": 3068,
      "force": 3069,
      "##hyroid": 3070,
      "access": 3071,
      "##urred": 3072,
      "probably": 3073,
      "Hypert": 3074,
      "ring": 3075,
      "rout": 3076,
      "positioned": 3077,
      "##cutaneous": 3078,
      "elbow": 3079,
      "border": 3080,
      "mention": 3081,
      "##orn": 3082,
      "think": 3083,
      "##acco": 3084,
      "##ologic": 3085,
      "tablet": 3086,
      "hepat": 3087,
      "cholecyst": 3088,
      "##aughter": 3089,
      "based": 3090,
      "nuc": 3091,
      "##ostic": 3092,
      "pin": 3093,
      "##SF": 3094,
      "##ips": 3095,
      "anteriorly": 3096,
      "away": 3097,
      "degenerative": 3098,
      "##oor": 3099,
      "##inous": 3100,
      "thought": 3101,
      "resp": 3102,
      "episodes": 3103,
      "95": 3104,
      "##ompl": 3105,
      "somew": 3106,
      "##itting": 3107,
      "radial": 3108,
      "rectus": 3109,
      "fifth": 3110,
      "mov": 3111,
      "extension": 3112,
      "##ongue": 3113,
      "palpation": 3114,
      "superficial": 3115,
      "AP": 3116,
      "shunt": 3117,
      "obes": 3118,
      "swallow": 3119,
      "layers": 3120,
      "released": 3121,
      "##iety": 3122,
      "Pupils": 3123,
      "et": 3124,
      "##iness": 3125,
      "##als": 3126,
      "foram": 3127,
      "outpatient": 3128,
      "flexion": 3129,
      "aspiration": 3130,
      "died": 3131,
      "##ev": 3132,
      "##uled": 3133,
      "sponge": 3134,
      "HEART": 3135,
      "residual": 3136,
      "undergo": 3137,
      "discectomy": 3138,
      "awak": 3139,
      "studies": 3140,
      "NEUROLOGIC": 3141,
      "pur": 3142,
      "##pan": 3143,
      "##chem": 3144,
      "underlying": 3145,
      "copiously": 3146,
      "bipolar": 3147,
      "material": 3148,
      "lens": 3149,
      "##otal": 3150,
      "promin": 3151,
      "grossly": 3152,
      "device": 3153,
      "SKIN": 3154,
      "junction": 3155,
      "##rum": 3156,
      "beg": 3157,
      "##ift": 3158,
      "chem": 3159,
      "platelet": 3160,
      "polyp": 3161,
      "##otherapy": 3162,
      "stroke": 3163,
      "Skin": 3164,
      "stop": 3165,
      "examin": 3166,
      "conn": 3167,
      "extubated": 3168,
      "problem": 3169,
      "father": 3170,
      "##atives": 3171,
      "double": 3172,
      "##roduced": 3173,
      "food": 3174,
      "##reg": 3175,
      "thigh": 3176,
      "orig": 3177,
      "##ocyt": 3178,
      "##agia": 3179,
      "consult": 3180,
      "Strips": 3181,
      "daughter": 3182,
      "nas": 3183,
      "increase": 3184,
      "limited": 3185,
      "hematoc": 3186,
      "delivery": 3187,
      "##ocardiogram": 3188,
      "cr": 3189,
      "dro": 3190,
      "answ": 3191,
      "infar": 3192,
      "##aging": 3193,
      "cannula": 3194,
      "##ither": 3195,
      "##ish": 3196,
      "stab": 3197,
      "remained": 3198,
      "recon": 3199,
      "worse": 3200,
      "98": 3201,
      "AC": 3202,
      "face": 3203,
      "##ma": 3204,
      "##aker": 3205,
      "transp": 3206,
      "dilated": 3207,
      "attempt": 3208,
      "epidural": 3209,
      "Acut": 3210,
      "Mother": 3211,
      "##iology": 3212,
      "obl": 3213,
      "##rict": 3214,
      "pred": 3215,
      "myoc": 3216,
      "systems": 3217,
      "THE": 3218,
      "somewhat": 3219,
      "Acute": 3220,
      "500": 3221,
      "sha": 3222,
      "adenopathy": 3223,
      "92": 3224,
      "##NI": 3225,
      "##uation": 3226,
      "##uls": 3227,
      "##cessful": 3228,
      "encou": 3229,
      "AD": 3230,
      "##ats": 3231,
      "##ena": 3232,
      "ureth": 3233,
      "BP": 3234,
      "gran": 3235,
      "woman": 3236,
      "##cal": 3237,
      "##terectomy": 3238,
      "##etal": 3239,
      "chart": 3240,
      "record": 3241,
      "metast": 3242,
      "hydro": 3243,
      "##IMEN": 3244,
      "reapproximated": 3245,
      "##NIQ": 3246,
      "Im": 3247,
      "##mitt": 3248,
      "##EL": 3249,
      "microscop": 3250,
      "frontal": 3251,
      "##oist": 3252,
      "drill": 3253,
      "35": 3254,
      "Bet": 3255,
      "##rate": 3256,
      "axillary": 3257,
      "healthy": 3258,
      "##mar": 3259,
      "ischem": 3260,
      "##ellar": 3261,
      "clock": 3262,
      "resected": 3263,
      "persist": 3264,
      "resolved": 3265,
      "replacement": 3266,
      "iliac": 3267,
      "diameter": 3268,
      "issues": 3269,
      "CSF": 3270,
      "Vital": 3271,
      "try": 3272,
      "##side": 3273,
      "##TER": 3274,
      "##ination": 3275,
      "##plasty": 3276,
      "consultation": 3277,
      "gland": 3278,
      "septum": 3279,
      "support": 3280,
      "Hypertension": 3281,
      "mentioned": 3282,
      "want": 3283,
      "##ormation": 3284,
      "organ": 3285,
      "clot": 3286,
      "repeat": 3287,
      "##rach": 3288,
      "apparent": 3289,
      "improvement": 3290,
      "SPECIMEN": 3291,
      "##EF": 3292,
      "##cont": 3293,
      "##ones": 3294,
      "##adine": 3295,
      "##imated": 3296,
      "introduced": 3297,
      "medially": 3298,
      "Status": 3299,
      "tight": 3300,
      "read": 3301,
      "##ontaneous": 3302,
      "differ": 3303,
      "initial": 3304,
      "gallop": 3305,
      "Min": 3306,
      "Mult": 3307,
      "##ason": 3308,
      "##igm": 3309,
      "plain": 3310,
      "continuous": 3311,
      "Tw": 3312,
      "##vascular": 3313,
      "##onic": 3314,
      "##emaker": 3315,
      "##ertion": 3316,
      "arteries": 3317,
      "peritoneum": 3318,
      "flushed": 3319,
      "curett": 3320,
      "vital": 3321,
      "another": 3322,
      "parents": 3323,
      "rash": 3324,
      "forceps": 3325,
      "Ag": 3326,
      "##ograft": 3327,
      "suctioned": 3328,
      "##regular": 3329,
      "27": 3330,
      "Cou": 3331,
      "Lapar": 3332,
      "TO": 3333,
      "wife": 3334,
      "##iation": 3335,
      "beh": 3336,
      "##rium": 3337,
      "club": 3338,
      "##ophageal": 3339,
      "arthritis": 3340,
      "biopsies": 3341,
      "97": 3342,
      "S2": 3343,
      "cran": 3344,
      "pe": 3345,
      "##ising": 3346,
      "##ational": 3347,
      "stim": 3348,
      "##sth": 3349,
      "levels": 3350,
      "fatig": 3351,
      "circumflex": 3352,
      "final": 3353,
      "punct": 3354,
      "sn": 3355,
      "extending": 3356,
      "##parin": 3357,
      "capsular": 3358,
      "Ref": 3359,
      "either": 3360,
      "fist": 3361,
      "##ording": 3362,
      "tooth": 3363,
      "##TIN": 3364,
      "chol": 3365,
      "##structions": 3366,
      "cartilage": 3367,
      "experien": 3368,
      "**": 3369,
      "Col": 3370,
      "vers": 3371,
      "##enol": 3372,
      "##romic": 3373,
      "incisions": 3374,
      "cystic": 3375,
      "sensory": 3376,
      "movement": 3377,
      "episode": 3378,
      "sk": 3379,
      "##CA": 3380,
      "prol": 3381,
      "preoperative": 3382,
      "smoking": 3383,
      "component": 3384,
      "Ple": 3385,
      "##ned": 3386,
      "anat": 3387,
      "##adin": 3388,
      "look": 3389,
      "##rauma": 3390,
      "intervention": 3391,
      "Heart": 3392,
      "anx": 3393,
      "radiation": 3394,
      "number": 3395,
      "##oplasty": 3396,
      "sites": 3397,
      "occasional": 3398,
      "Betadine": 3399,
      "Good": 3400,
      "Lung": 3401,
      "##madin": 3402,
      "straight": 3403,
      "orb": 3404,
      "Head": 3405,
      "##ription": 3406,
      "cells": 3407,
      "clamped": 3408,
      "trial": 3409,
      "##pec": 3410,
      "stay": 3411,
      "##ify": 3412,
      "narrow": 3413,
      "eight": 3414,
      "##card": 3415,
      "##roplasty": 3416,
      "##omin": 3417,
      "##omies": 3418,
      "##emory": 3419,
      "conjunctiv": 3420,
      "##geal": 3421,
      "##itudinal": 3422,
      "exposure": 3423,
      "clubbing": 3424,
      "Dia": 3425,
      "cap": 3426,
      "##ubic": 3427,
      "respon": 3428,
      "Neurolog": 3429,
      "gauge": 3430,
      "response": 3431,
      "aut": 3432,
      "routine": 3433,
      "peripheral": 3434,
      "reflux": 3435,
      "rectal": 3436,
      "involving": 3437,
      "Coumadin": 3438,
      "96": 3439,
      "PM": 3440,
      "nons": 3441,
      "delivered": 3442,
      "alternatives": 3443,
      "foreign": 3444,
      "sch": 3445,
      "##OP": 3446,
      "##vert": 3447,
      "spontaneous": 3448,
      "intermitt": 3449,
      "hys": 3450,
      "tubes": 3451,
      "breathing": 3452,
      "accident": 3453,
      "Two": 3454,
      "tone": 3455,
      "##orb": 3456,
      "onset": 3457,
      "transected": 3458,
      "labor": 3459,
      "af": 3460,
      "dri": 3461,
      "ile": 3462,
      "moist": 3463,
      "##AST": 3464,
      "excess": 3465,
      "prepar": 3466,
      "completion": 3467,
      "workup": 3468,
      "avoid": 3469,
      "BUN": 3470,
      "##band": 3471,
      "asc": 3472,
      "peric": 3473,
      "abuse": 3474,
      "posteriorly": 3475,
      "##aryngeal": 3476,
      "INDICATION": 3477,
      "pedicle": 3478,
      "hemorrhage": 3479,
      "appreciated": 3480,
      "CBC": 3481,
      "baby": 3482,
      "anal": 3483,
      "needs": 3484,
      "exposed": 3485,
      "##mg": 3486,
      "May": 3487,
      "OR": 3488,
      "flexor": 3489,
      "headache": 3490,
      "osteophyt": 3491,
      "bur": 3492,
      "##ister": 3493,
      "inch": 3494,
      "##usband": 3495,
      "orth": 3496,
      "##ovascular": 3497,
      "##ological": 3498,
      "drink": 3499,
      "know": 3500,
      "said": 3501,
      "activities": 3502,
      "angiography": 3503,
      "obstructive": 3504,
      "##igmoid": 3505,
      "Cor": 3506,
      "##terolateral": 3507,
      "least": 3508,
      "consider": 3509,
      "hypertrophy": 3510,
      "facet": 3511,
      "ovar": 3512,
      "L3": 3513,
      "glucose": 3514,
      "trauma": 3515,
      "##upt": 3516,
      "##oden": 3517,
      "##vertic": 3518,
      "##aking": 3519,
      "protein": 3520,
      "##ropathy": 3521,
      "05": 3522,
      "ce": 3523,
      "##iotomy": 3524,
      "##issection": 3525,
      "presentation": 3526,
      "gastric": 3527,
      "##ULT": 3528,
      "App": 3529,
      "fraction": 3530,
      "increasing": 3531,
      "Inf": 3532,
      "appearance": 3533,
      "irregular": 3534,
      "radicul": 3535,
      "laceration": 3536,
      "Ris": 3537,
      "##achy": 3538,
      "spondyl": 3539,
      "approximated": 3540,
      "staples": 3541,
      "pacemaker": 3542,
      "29": 3543,
      "CP": 3544,
      "rule": 3545,
      "##por": 3546,
      "##kn": 3547,
      "##ogn": 3548,
      "Inc": 3549,
      "airway": 3550,
      "diffuse": 3551,
      "br": 3552,
      "x2": 3553,
      "saturation": 3554,
      "saf": 3555,
      "feeling": 3556,
      "murmurs": 3557,
      "perioste": 3558,
      "scheduled": 3559,
      "myocardial": 3560,
      "##oses": 3561,
      "##orted": 3562,
      "##ympan": 3563,
      "edges": 3564,
      "##elvic": 3565,
      "phal": 3566,
      "feels": 3567,
      "lock": 3568,
      "##asia": 3569,
      "##itral": 3570,
      "towards": 3571,
      "##angu": 3572,
      "##avicular": 3573,
      "##duction": 3574,
      "dura": 3575,
      "##ria": 3576,
      "tob": 3577,
      "hearing": 3578,
      "chromic": 3579,
      "stern": 3580,
      "measuring": 3581,
      "question": 3582,
      "laparoscopic": 3583,
      "Cervical": 3584,
      "Total": 3585,
      "Upon": 3586,
      "tongue": 3587,
      "##EG": 3588,
      "##function": 3589,
      "##aces": 3590,
      "notic": 3591,
      "##ellitus": 3592,
      "##union": 3593,
      "##ensive": 3594,
      "unit": 3595,
      "amounts": 3596,
      "ureteral": 3597,
      "##ba": 3598,
      "evaluate": 3599,
      "inferiorly": 3600,
      "superiorly": 3601,
      "lumen": 3602,
      "Af": 3603,
      "Motor": 3604,
      "husband": 3605,
      "mellitus": 3606,
      "instructed": 3607,
      "##ptions": 3608,
      "##agulation": 3609,
      "agre": 3610,
      "reflected": 3611,
      "seems": 3612,
      "versus": 3613,
      "72": 3614,
      "##pnea": 3615,
      "##jor": 3616,
      "suite": 3617,
      "sutured": 3618,
      "endomet": 3619,
      "longitudinal": 3620,
      "intraoperative": 3621,
      "oblique": 3622,
      "mamm": 3623,
      "##asm": 3624,
      "##INE": 3625,
      "Extrem": 3626,
      "culture": 3627,
      "Positive": 3628,
      "Significant": 3629,
      "examined": 3630,
      "tobacco": 3631,
      "CN": 3632,
      "Cauc": 3633,
      "memory": 3634,
      "##rical": 3635,
      "##lip": 3636,
      "##HX": 3637,
      "##asian": 3638,
      "##icit": 3639,
      "##odium": 3640,
      "##astric": 3641,
      "intrac": 3642,
      "colonoscopy": 3643,
      "rays": 3644,
      "Caucasian": 3645,
      "say": 3646,
      "##lasty": 3647,
      "cauter": 3648,
      "fevers": 3649,
      "Clin": 3650,
      "hematocrit": 3651,
      "##ominant": 3652,
      "Comp": 3653,
      "tra": 3654,
      "##esophageal": 3655,
      "knife": 3656,
      "appropriately": 3657,
      "required": 3658,
      "##RO": 3659,
      "##iciency": 3660,
      "longus": 3661,
      "inflated": 3662,
      "monitoring": 3663,
      "Ker": 3664,
      "##itations": 3665,
      "continues": 3666,
      "benign": 3667,
      "extensor": 3668,
      "withdrawn": 3669,
      "##known": 3670,
      "##iec": 3671,
      "##ili": 3672,
      "##acral": 3673,
      "supple": 3674,
      "allowed": 3675,
      "04": 3676,
      "##aw": 3677,
      "##anx": 3678,
      "##idal": 3679,
      "comes": 3680,
      "imm": 3681,
      "250": 3682,
      "worsening": 3683,
      "phalanx": 3684,
      "instructions": 3685,
      "##osition": 3686,
      "carb": 3687,
      "CHEST": 3688,
      "checked": 3689,
      "illness": 3690,
      "views": 3691,
      "echocardiogram": 3692,
      "93": 3693,
      "CA": 3694,
      "Sin": 3695,
      "##isone": 3696,
      "##plate": 3697,
      "##vian": 3698,
      "Lungs": 3699,
      "Wh": 3700,
      "keep": 3701,
      "nour": 3702,
      "##othyroid": 3703,
      "proper": 3704,
      "retro": 3705,
      "insulin": 3706,
      "actually": 3707,
      "reflexes": 3708,
      "apparently": 3709,
      "Temperature": 3710,
      "Please": 3711,
      "nourished": 3712,
      "RES": 3713,
      "mom": 3714,
      "##raocular": 3715,
      "##pping": 3716,
      "align": 3717,
      "scler": 3718,
      "##ebrile": 3719,
      "provided": 3720,
      "##aque": 3721,
      "fatigue": 3722,
      "##ares": 3723,
      "##ject": 3724,
      "##leus": 3725,
      "floor": 3726,
      "coun": 3727,
      "pattern": 3728,
      "respirations": 3729,
      "extensive": 3730,
      "menisc": 3731,
      "lith": 3732,
      "mand": 3733,
      "state": 3734,
      "##OSP": 3735,
      "legs": 3736,
      "LAD": 3737,
      "36": 3738,
      "48": 3739,
      "Dis": 3740,
      "Vers": 3741,
      "tachy": 3742,
      "##cious": 3743,
      "##ush": 3744,
      "corre": 3745,
      "aspirin": 3746,
      "mobil": 3747,
      "03": 3748,
      "When": 3749,
      "cross": 3750,
      "tied": 3751,
      "##osacral": 3752,
      "appoint": 3753,
      "Laparoscopic": 3754,
      "##baum": 3755,
      "LV": 3756,
      "##iate": 3757,
      "##endent": 3758,
      "obtain": 3759,
      "measures": 3760,
      "reduced": 3761,
      "person": 3762,
      "major": 3763,
      "seizure": 3764,
      "infiltrated": 3765,
      "brother": 3766,
      "exercise": 3767,
      "radiculopathy": 3768,
      "Approxim": 3769,
      "ER": 3770,
      "dim": 3771,
      "##gia": 3772,
      "surround": 3773,
      "angiogram": 3774,
      "##time": 3775,
      "affect": 3776,
      "Co": 3777,
      "Rem": 3778,
      "##icated": 3779,
      "heparin": 3780,
      "shap": 3781,
      "angle": 3782,
      "Minimal": 3783,
      "Con": 3784,
      "##hyd": 3785,
      "##ECH": 3786,
      "attach": 3787,
      "sharply": 3788,
      "bruits": 3789,
      "Metzen": 3790,
      "Metzenbaum": 3791,
      "hum": 3792,
      "rupt": 3793,
      "##ief": 3794,
      "##idemia": 3795,
      "subcl": 3796,
      "opening": 3797,
      "apnea": 3798,
      "rotator": 3799,
      "Cardiac": 3800,
      "necess": 3801,
      "HOSP": 3802,
      "##ocol": 3803,
      "##istended": 3804,
      "speculum": 3805,
      "Unremarkable": 3806,
      "marginal": 3807,
      "thoracic": 3808,
      "instrumentation": 3809,
      "insufficiency": 3810,
      "HOSPITAL": 3811,
      "cry": 3812,
      "##gi": 3813,
      "suc": 3814,
      "##izz": 3815,
      "overlying": 3816,
      "decided": 3817,
      "##rophic": 3818,
      "polyps": 3819,
      "simple": 3820,
      "thorough": 3821,
      "09": 3822,
      "plane": 3823,
      "imaging": 3824,
      "separate": 3825,
      "##cardia": 3826,
      "Em": 3827,
      "Fl": 3828,
      "##oarth": 3829,
      "##ully": 3830,
      "##idement": 3831,
      "remain": 3832,
      "##piratory": 3833,
      "seizures": 3834,
      "06": 3835,
      "Sens": 3836,
      "max": 3837,
      "nurs": 3838,
      "##oly": 3839,
      "##put": 3840,
      "##cg": 3841,
      "information": 3842,
      "##nex": 3843,
      "leak": 3844,
      "##abl": 3845,
      "ambul": 3846,
      "eyes": 3847,
      "rectum": 3848,
      "margin": 3849,
      "SUBJECTIVE": 3850,
      "awakened": 3851,
      "Xyl": 3852,
      "pole": 3853,
      "sure": 3854,
      "##eh": 3855,
      "##ging": 3856,
      "##uture": 3857,
      "##stomy": 3858,
      "##amic": 3859,
      "combin": 3860,
      "##phagia": 3861,
      "EMG": 3862,
      "##lipidemia": 3863,
      "Xylocaine": 3864,
      "Local": 3865,
      "##ctor": 3866,
      "Weight": 3867,
      "hematuria": 3868,
      "getting": 3869,
      "anesthet": 3870,
      "appendix": 3871,
      "Again": 3872,
      "anxiety": 3873,
      "hysterectomy": 3874,
      "cement": 3875,
      "##avian": 3876,
      "##usions": 3877,
      "stone": 3878,
      "takes": 3879,
      "##ioplasty": 3880,
      "divertic": 3881,
      "possibly": 3882,
      "Approximately": 3883,
      "subclavian": 3884,
      "During": 3885,
      "TECH": 3886,
      "normocephalic": 3887,
      "##self": 3888,
      "##ict": 3889,
      "infant": 3890,
      "flat": 3891,
      "ventricul": 3892,
      "measured": 3893,
      "_______": 3894,
      "palate": 3895,
      "school": 3896,
      "Extremities": 3897,
      "Car": 3898,
      "gave": 3899,
      "held": 3900,
      "neph": 3901,
      "approach": 3902,
      "early": 3903,
      "Otherwise": 3904,
      "fairly": 3905,
      "##sthma": 3906,
      "CV": 3907,
      "Sym": 3908,
      "To": 3909,
      "ejection": 3910,
      "gait": 3911,
      "panc": 3912,
      "serv": 3913,
      "many": 3914,
      "joints": 3915,
      "palpated": 3916,
      "fluoroscopy": 3917,
      "prescription": 3918,
      "fistula": 3919,
      "self": 3920,
      "##YCH": 3921,
      "##eric": 3922,
      "##ialysis": 3923,
      "regurg": 3924,
      "particular": 3925,
      "belie": 3926,
      "possibility": 3927,
      "trachea": 3928,
      "99": 3929,
      "Cons": 3930,
      "Cranial": 3931,
      "lot": 3932,
      "wid": 3933,
      "##OT": 3934,
      "prof": 3935,
      "caus": 3936,
      "##ailable": 3937,
      "dissect": 3938,
      "##angeal": 3939,
      "advised": 3940,
      "rashes": 3941,
      "answered": 3942,
      "Op": 3943,
      "piec": 3944,
      "##son": 3945,
      "##get": 3946,
      "##ines": 3947,
      "forear": 3948,
      "##iber": 3949,
      "##anged": 3950,
      "impair": 3951,
      "veins": 3952,
      "limb": 3953,
      "Pulse": 3954,
      "immediately": 3955,
      "Ben": 3956,
      "Tyl": 3957,
      "mcg": 3958,
      "##MM": 3959,
      "##inated": 3960,
      "notes": 3961,
      "##phyl": 3962,
      "##ostal": 3963,
      "whether": 3964,
      "cataract": 3965,
      "walking": 3966,
      "married": 3967,
      "patella": 3968,
      "chemotherapy": 3969,
      "intermittent": 3970,
      "regurgitation": 3971,
      "Tylenol": 3972,
      "31": 3973,
      "Vis": 3974,
      "bag": 3975,
      "brach": 3976,
      "nature": 3977,
      "##lation": 3978,
      "##edge": 3979,
      "took": 3980,
      "artic": 3981,
      "became": 3982,
      "Also": 3983,
      "children": 3984,
      "PSYCH": 3985,
      "##vertebral": 3986,
      "noticed": 3987,
      "300": 3988,
      "fold": 3989,
      "##ans": 3990,
      "##ploy": 3991,
      "##ervative": 3992,
      "itself": 3993,
      "septal": 3994,
      "infarction": 3995,
      "hydroce": 3996,
      "dizz": 3997,
      "##UD": 3998,
      "their": 3999,
      "##END": 4000,
      "##ibular": 4001,
      "included": 4002,
      "##ontinue": 4003,
      "peritoneal": 4004,
      "wheezing": 4005,
      "##ributory": 4006,
      "Both": 4007,
      "cec": 4008,
      "##arily": 4009,
      "touch": 4010,
      "##cope": 4011,
      "complaining": 4012,
      "guid": 4013,
      "##ietal": 4014,
      "available": 4015,
      "penis": 4016,
      "nondistended": 4017,
      "sigmoid": 4018,
      "##rin": 4019,
      "##ept": 4020,
      "reason": 4021,
      "intubated": 4022,
      "inches": 4023,
      "##ubation": 4024,
      "##renal": 4025,
      "##oke": 4026,
      "##ETAL": 4027,
      "circumfer": 4028,
      "foramen": 4029,
      "Versed": 4030,
      "ho": 4031,
      "oropharynx": 4032,
      "ronge": 4033,
      "sister": 4034,
      "##ng": 4035,
      "##RU": 4036,
      "##ittal": 4037,
      "comfort": 4038,
      "##agittal": 4039,
      "enter": 4040,
      "INR": 4041,
      "awake": 4042,
      "Exam": 4043,
      "calcium": 4044,
      "clinical": 4045,
      "establ": 4046,
      "##NIQUE": 4047,
      "surrounding": 4048,
      "TECHNIQUE": 4049,
      "EN": 4050,
      "For": 4051,
      "##ves": 4052,
      "chlor": 4053,
      "##aryng": 4054,
      "fluoroscopic": 4055,
      "volume": 4056,
      "microscope": 4057,
      "narrowing": 4058,
      "forearm": 4059,
      "MUS": 4060,
      "ra": 4061,
      "##for": 4062,
      "III": 4063,
      "cultures": 4064,
      "congestion": 4065,
      "future": 4066,
      "mitral": 4067,
      "tro": 4068,
      "vas": 4069,
      "your": 4070,
      "##MEND": 4071,
      "##UT": 4072,
      "##rong": 4073,
      "occl": 4074,
      "##OMMEND": 4075,
      "progressive": 4076,
      "RECOMMEND": 4077,
      "persistent": 4078,
      "vitamin": 4079,
      "##bol": 4080,
      "top": 4081,
      "mildly": 4082,
      "cardiop": 4083,
      "illicit": 4084,
      "Intra": 4085,
      "cholecystectomy": 4086,
      "aud": 4087,
      "##yle": 4088,
      "##PD": 4089,
      "##KEL": 4090,
      "##astoid": 4091,
      "deter": 4092,
      "unknown": 4093,
      "attached": 4094,
      "arteri": 4095,
      "proceeded": 4096,
      "Severe": 4097,
      "Prior": 4098,
      "wat": 4099,
      "##osus": 4100,
      "##TIC": 4101,
      "##illar": 4102,
      "##ipation": 4103,
      "diaph": 4104,
      "ligaments": 4105,
      "understood": 4106,
      "##esterday": 4107,
      "symmetric": 4108,
      "nucleus": 4109,
      "tur": 4110,
      "tri": 4111,
      "##enic": 4112,
      "##rograde": 4113,
      "induced": 4114,
      "Americ": 4115,
      "##KELETAL": 4116,
      "##ITION": 4117,
      "##mental": 4118,
      "##OSITION": 4119,
      "dysfunction": 4120,
      "dyspnea": 4121,
      "os": 4122,
      "##AN": 4123,
      "toes": 4124,
      "##changed": 4125,
      "event": 4126,
      "##ertain": 4127,
      "##ocket": 4128,
      "appointment": 4129,
      "American": 4130,
      "01": 4131,
      "fund": 4132,
      "##ued": 4133,
      "subm": 4134,
      "pressures": 4135,
      "edge": 4136,
      "tonsil": 4137,
      "FL": 4138,
      "Not": 4139,
      "##vision": 4140,
      "##ined": 4141,
      "##arb": 4142,
      "##urysm": 4143,
      "therefore": 4144,
      "150": 4145,
      "elevation": 4146,
      "smoke": 4147,
      "##version": 4148,
      "##CULOS": 4149,
      "reaction": 4150,
      "MUSCULOS": 4151,
      "tit": 4152,
      "antic": 4153,
      "##ulitis": 4154,
      "incontin": 4155,
      "caud": 4156,
      "enh": 4157,
      "diagnostic": 4158,
      "indicated": 4159,
      "deficits": 4160,
      "##II": 4161,
      "adrenal": 4162,
      "extra": 4163,
      "protocol": 4164,
      "branches": 4165,
      "CONSULT": 4166,
      "agreed": 4167,
      "MUSCULOSKELETAL": 4168,
      "give": 4169,
      "ann": 4170,
      "##earing": 4171,
      "intersp": 4172,
      "modified": 4173,
      "##axis": 4174,
      "Excision": 4175,
      "retractor": 4176,
      "##DITION": 4177,
      "begin": 4178,
      "Ey": 4179,
      "pending": 4180,
      "##POSITION": 4181,
      "##enomegaly": 4182,
      "##iring": 4183,
      "ens": 4184,
      "DISPOSITION": 4185,
      "orthop": 4186,
      "34": 4187,
      "asthma": 4188,
      "fetal": 4189,
      "warm": 4190,
      "##ressive": 4191,
      "diag": 4192,
      "significantly": 4193,
      "meth": 4194,
      "working": 4195,
      "cutting": 4196,
      "maintained": 4197,
      "halluc": 4198,
      "afebrile": 4199,
      "37": 4200,
      "mat": 4201,
      "##illin": 4202,
      "2006": 4203,
      "fibroid": 4204,
      "maxim": 4205,
      "puncture": 4206,
      "veh": 4207,
      "##icidal": 4208,
      "##ower": 4209,
      "atrium": 4210,
      "##apid": 4211,
      "Ins": 4212,
      "packed": 4213,
      "separated": 4214,
      "rhin": 4215,
      "##PIR": 4216,
      "reconstruction": 4217,
      "Dissection": 4218,
      "Pain": 4219,
      "doc": 4220,
      "gest": 4221,
      "##hab": 4222,
      "ane": 4223,
      "##icus": 4224,
      "intubation": 4225,
      "##ervation": 4226,
      "patch": 4227,
      "espec": 4228,
      "cannot": 4229,
      "umbilicus": 4230,
      "especially": 4231,
      "basis": 4232,
      "##ton": 4233,
      "##IDS": 4234,
      "##odies": 4235,
      "decrease": 4236,
      "groin": 4237,
      "ascending": 4238,
      "yesterday": 4239,
      "neuropathy": 4240,
      "curved": 4241,
      "urethra": 4242,
      "Over": 4243,
      "Rad": 4244,
      "sides": 4245,
      "##less": 4246,
      "##ontal": 4247,
      "##entric": 4248,
      "suff": 4249,
      "##angi": 4250,
      "##placed": 4251,
      "rotation": 4252,
      "inflammatory": 4253,
      "stopped": 4254,
      "transported": 4255,
      "##contributory": 4256,
      "Risks": 4257,
      "Gait": 4258,
      "pink": 4259,
      "##atous": 4260,
      "atraumatic": 4261,
      "signal": 4262,
      "ess": 4263,
      "living": 4264,
      "Sterile": 4265,
      "rubs": 4266,
      "alignment": 4267,
      "incontinence": 4268,
      "aneurysm": 4269,
      "TIM": 4270,
      "date": 4271,
      "hole": 4272,
      "##bal": 4273,
      "##romeg": 4274,
      "Therefore": 4275,
      "retraction": 4276,
      "pulled": 4277,
      "requiring": 4278,
      "Multiple": 4279,
      "says": 4280,
      "##romegaly": 4281,
      "tric": 4282,
      "##ison": 4283,
      "##aculum": 4284,
      "##otomies": 4285,
      "##une": 4286,
      "painful": 4287,
      "arthroscop": 4288,
      "thickness": 4289,
      "ADM": 4290,
      "##othyroidism": 4291,
      "diagonal": 4292,
      "derm": 4293,
      "fra": 4294,
      "sagittal": 4295,
      "##iasis": 4296,
      "##oriz": 4297,
      "alb": 4298,
      "posterolateral": 4299,
      "add": 4300,
      "retrograde": 4301,
      "feeding": 4302,
      "tests": 4303,
      "loop": 4304,
      "digital": 4305,
      "One": 4306,
      "Ret": 4307,
      "foss": 4308,
      "got": 4309,
      "pocket": 4310,
      "wedge": 4311,
      "##iast": 4312,
      "##ux": 4313,
      "##ensity": 4314,
      "conscious": 4315,
      "occurred": 4316,
      "obesity": 4317,
      "##oarthritis": 4318,
      "combination": 4319,
      "vehicle": 4320,
      "XX": 4321,
      "##YY": 4322,
      "prophyl": 4323,
      "##aps": 4324,
      "thyromegaly": 4325,
      "STUD": 4326,
      "monitored": 4327,
      "potential": 4328,
      "_________": 4329,
      "##RAIN": 4330,
      "cecum": 4331,
      "##orizontal": 4332,
      "tap": 4333,
      "##ware": 4334,
      "##teric": 4335,
      "really": 4336,
      "##ipital": 4337,
      "color": 4338,
      "require": 4339,
      "Addition": 4340,
      "bluntly": 4341,
      "attempted": 4342,
      "connected": 4343,
      "FLU": 4344,
      "DRAIN": 4345,
      "##aco": 4346,
      "even": 4347,
      "interc": 4348,
      "2009": 4349,
      "##ixed": 4350,
      "identify": 4351,
      "impact": 4352,
      "para": 4353,
      "eyel": 4354,
      "##rown": 4355,
      "arterial": 4356,
      "linear": 4357,
      "Medical": 4358,
      "Extraocular": 4359,
      "debridement": 4360,
      "respons": 4361,
      "different": 4362,
      "RESPIR": 4363,
      "turbin": 4364,
      "GU": 4365,
      "filled": 4366,
      "gen": 4367,
      "ost": 4368,
      "sitting": 4369,
      "##cuss": 4370,
      "prep": 4371,
      "median": 4372,
      "hands": 4373,
      "involved": 4374,
      "cerebral": 4375,
      "inflammation": 4376,
      "spondylosis": 4377,
      "%,": 4378,
      "55": 4379,
      "Center": 4380,
      "Hyp": 4381,
      "talk": 4382,
      "##ivity": 4383,
      "##umbil": 4384,
      "wounds": 4385,
      "angioplasty": 4386,
      "CONDITION": 4387,
      "apex": 4388,
      "malign": 4389,
      "swallowing": 4390,
      "prolong": 4391,
      "AX": 4392,
      "Bowel": 4393,
      "En": 4394,
      "Musc": 4395,
      "eating": 4396,
      "##uk": 4397,
      "##AP": 4398,
      "##oprol": 4399,
      "plus": 4400,
      "adnex": 4401,
      "##agn": 4402,
      "##rican": 4403,
      "bleed": 4404,
      "knees": 4405,
      "dysphagia": 4406,
      "adenoid": 4407,
      "drugs": 4408,
      "grand": 4409,
      "orbital": 4410,
      "African": 4411,
      "##igure": 4412,
      "##resent": 4413,
      "irrit": 4414,
      "cleared": 4415,
      "calor": 4416,
      "demonstrates": 4417,
      "##umbilical": 4418,
      "Las": 4419,
      "horizontal": 4420,
      "x3": 4421,
      "##erus": 4422,
      "##ectoral": 4423,
      "produ": 4424,
      "##IATR": 4425,
      "subd": 4426,
      "##race": 4427,
      "frequency": 4428,
      "38": 4429,
      "Ap": 4430,
      "Gast": 4431,
      "Mod": 4432,
      "bif": 4433,
      "##atysm": 4434,
      "though": 4435,
      "##raw": 4436,
      "endoscopy": 4437,
      "##avior": 4438,
      "starting": 4439,
      "clamps": 4440,
      "##OLOGICAL": 4441,
      "anatom": 4442,
      "##ognitive": 4443,
      "necessary": 4444,
      "Ev": 4445,
      "Further": 4446,
      "Test": 4447,
      "dental": 4448,
      "##nisone": 4449,
      "##eline": 4450,
      "##iff": 4451,
      "PACU": 4452,
      "embol": 4453,
      "according": 4454,
      "prominent": 4455,
      "guidance": 4456,
      "RECOMMENDATIONS": 4457,
      "AXIS": 4458,
      "CC": 4459,
      "Ep": 4460,
      "##OW": 4461,
      "##asp": 4462,
      "##arv": 4463,
      "atrophy": 4464,
      "##etite": 4465,
      "##peritone": 4466,
      "lea": 4467,
      "procedures": 4468,
      "repe": 4469,
      "flank": 4470,
      "##ragm": 4471,
      "origin": 4472,
      "SPECIMENS": 4473,
      "##ympanic": 4474,
      "nursing": 4475,
      "document": 4476,
      "My": 4477,
      "pump": 4478,
      "wave": 4479,
      "##ared": 4480,
      "cause": 4481,
      "CO2": 4482,
      "intraocular": 4483,
      "consisting": 4484,
      "dressed": 4485,
      "thickening": 4486,
      "locking": 4487,
      "PSYCHIATR": 4488,
      "TM": 4489,
      "##to": 4490,
      "##ices": 4491,
      "##igare": 4492,
      "##ids": 4493,
      "cond": 4494,
      "prog": 4495,
      "height": 4496,
      "##xture": 4497,
      "testis": 4498,
      "requested": 4499,
      "planned": 4500,
      "##rectomy": 4501,
      "adjacent": 4502,
      "##igarett": 4503,
      "Mom": 4504,
      "tension": 4505,
      "wires": 4506,
      "##rest": 4507,
      "##letal": 4508,
      "never": 4509,
      "##aphen": 4510,
      "Inter": 4511,
      "couple": 4512,
      "direction": 4513,
      "##keletal": 4514,
      "cooperative": 4515,
      "young": 4516,
      "metastatic": 4517,
      "Reflexes": 4518,
      "Clinic": 4519,
      "thoroughly": 4520,
      "##cussion": 4521,
      "02": 4522,
      "Path": 4523,
      "kg": 4524,
      "mel": 4525,
      "pap": 4526,
      "##den": 4527,
      "##ety": 4528,
      "##ample": 4529,
      "evac": 4530,
      "transplant": 4531,
      "femur": 4532,
      "##lective": 4533,
      "location": 4534,
      "slowly": 4535,
      "81": 4536,
      "O2": 4537,
      "trig": 4538,
      "##ata": 4539,
      "##ules": 4540,
      "##olus": 4541,
      "discontin": 4542,
      "Abc": 4543,
      "vagina": 4544,
      "allergic": 4545,
      "cleaned": 4546,
      "ovary": 4547,
      "splint": 4548,
      "anesthetized": 4549,
      "fossa": 4550,
      "prolonged": 4551,
      "PSYCHIATRIC": 4552,
      "Ur": 4553,
      "mood": 4554,
      "ot": 4555,
      "rapid": 4556,
      "##VT": 4557,
      "perman": 4558,
      "##ugular": 4559,
      "perforation": 4560,
      "department": 4561,
      "margins": 4562,
      "##rotum": 4563,
      "encoun": 4564,
      "65": 4565,
      "Ac": 4566,
      "cigarett": 4567,
      "figure": 4568,
      "##itary": 4569,
      "##esare": 4570,
      "plaque": 4571,
      "##ching": 4572,
      "devi": 4573,
      "##luded": 4574,
      "showing": 4575,
      "defin": 4576,
      "parietal": 4577,
      "changed": 4578,
      "successful": 4579,
      "##esarean": 4580,
      "Oste": 4581,
      "Ver": 4582,
      "lit": 4583,
      "rib": 4584,
      "##enoid": 4585,
      "strong": 4586,
      "neural": 4587,
      "epig": 4588,
      "liqu": 4589,
      "sterilely": 4590,
      "commun": 4591,
      "constipation": 4592,
      "mandible": 4593,
      "68": 4594,
      "Cyst": 4595,
      "Less": 4596,
      "Ul": 4597,
      "mental": 4598,
      "##rotal": 4599,
      "allograft": 4600,
      "cyc": 4601,
      "caliber": 4602,
      "myel": 4603,
      "failed": 4604,
      "confirm": 4605,
      "##esterol": 4606,
      "Emergency": 4607,
      "Open": 4608,
      "DRAINS": 4609,
      "##aphenous": 4610,
      "Trans": 4611,
      "rim": 4612,
      "##12": 4613,
      "refer": 4614,
      "##occ": 4615,
      "sex": 4616,
      "##plenomegaly": 4617,
      "evening": 4618,
      "sweat": 4619,
      "Unit": 4620,
      "##mined": 4621,
      "Arth": 4622,
      "dizziness": 4623,
      "Lasix": 4624,
      "best": 4625,
      "boy": 4626,
      "fil": 4627,
      "how": 4628,
      "lumb": 4629,
      "opp": 4630,
      "pig": 4631,
      "ting": 4632,
      "##iform": 4633,
      "percutaneous": 4634,
      "##hesis": 4635,
      "transf": 4636,
      "fractures": 4637,
      "palpitations": 4638,
      "tibia": 4639,
      "enlarg": 4640,
      "located": 4641,
      "neurologic": 4642,
      "padded": 4643,
      "collateral": 4644,
      "Surgery": 4645,
      "##ployed": 4646,
      "interspace": 4647,
      "62": 4648,
      "Ph": 4649,
      "Well": 4650,
      "gut": 4651,
      "##ty": 4652,
      "##ze": 4653,
      "##heum": 4654,
      "##erat": 4655,
      "##lection": 4656,
      "##osplenomegaly": 4657,
      "##uted": 4658,
      "##acter": 4659,
      "##ementia": 4660,
      "ventil": 4661,
      "SURGER": 4662,
      "induction": 4663,
      "gallops": 4664,
      "remainder": 4665,
      "options": 4666,
      "pan": 4667,
      "wa": 4668,
      "##yel": 4669,
      "##aid": 4670,
      "##ged": 4671,
      "##RE": 4672,
      "##icles": 4673,
      "foramin": 4674,
      "exud": 4675,
      "##amine": 4676,
      "##aged": 4677,
      "specific": 4678,
      "probe": 4679,
      "micro": 4680,
      "organomegaly": 4681,
      "pericardial": 4682,
      "cauterized": 4683,
      "HX": 4684,
      "lif": 4685,
      "##ipple": 4686,
      "##des": 4687,
      "##irth": 4688,
      "image": 4689,
      "transfer": 4690,
      "##aluation": 4691,
      "2003": 4692,
      "called": 4693,
      "encountered": 4694,
      "PDS": 4695,
      "Ro": 4696,
      "lost": 4697,
      "pron": 4698,
      "ta": 4699,
      "##itory": 4700,
      "##icine": 4701,
      "##urc": 4702,
      "neopl": 4703,
      "##psy": 4704,
      "complains": 4705,
      "discussion": 4706,
      "injuries": 4707,
      "benefit": 4708,
      "mucosal": 4709,
      "provide": 4710,
      "ordered": 4711,
      "Respiratory": 4712,
      "prepared": 4713,
      "tachycardia": 4714,
      "94": 4715,
      "Lev": 4716,
      "MI": 4717,
      "XII": 4718,
      "fast": 4719,
      "##ady": 4720,
      "arms": 4721,
      "tested": 4722,
      "dysuria": 4723,
      "fourth": 4724,
      "##lectomy": 4725,
      "thrombosis": 4726,
      "suspic": 4727,
      "biceps": 4728,
      "hepatosplenomegaly": 4729,
      "experienced": 4730,
      "established": 4731,
      "TIME": 4732,
      "Deep": 4733,
      "fully": 4734,
      "jugular": 4735,
      "water": 4736,
      "##CTION": 4737,
      "##ulos": 4738,
      "##uricular": 4739,
      "##verted": 4740,
      "##chym": 4741,
      "appetite": 4742,
      "##ruc": 4743,
      "acid": 4744,
      "ports": 4745,
      "indep": 4746,
      "accompl": 4747,
      "wheezes": 4748,
      "laminectomy": 4749,
      "drops": 4750,
      "stimulation": 4751,
      "chloride": 4752,
      "repeated": 4753,
      "enlargement": 4754,
      "Continue": 4755,
      "Und": 4756,
      "fill": 4757,
      "las": 4758,
      "trem": 4759,
      "vena": 4760,
      "##ohyd": 4761,
      "##thing": 4762,
      "##ortic": 4763,
      "##ING": 4764,
      "removing": 4765,
      "cold": 4766,
      "125": 4767,
      "fascial": 4768,
      "fiber": 4769,
      "dressings": 4770,
      "interval": 4771,
      "ovarian": 4772,
      "permanent": 4773,
      "EEG": 4774,
      "bodies": 4775,
      "##icillin": 4776,
      "arch": 4777,
      "happ": 4778,
      "##inalysis": 4779,
      "difficulties": 4780,
      "worked": 4781,
      "##ready": 4782,
      "neurological": 4783,
      "tablets": 4784,
      "Sensory": 4785,
      "##uloskeletal": 4786,
      "ter": 4787,
      "##atal": 4788,
      "##ocial": 4789,
      "sequ": 4790,
      "subc": 4791,
      "elected": 4792,
      "decision": 4793,
      "COPD": 4794,
      "##ancement": 4795,
      "holding": 4796,
      "verified": 4797,
      "hemostat": 4798,
      "Diabet": 4799,
      "safety": 4800,
      "41": 4801,
      "Lumbar": 4802,
      "bunion": 4803,
      "percussion": 4804,
      "extraction": 4805,
      "compartment": 4806,
      "outside": 4807,
      "reflex": 4808,
      "hemostatic": 4809,
      "moved": 4810,
      "Cat": 4811,
      "L1": 4812,
      "WBC": 4813,
      "##SH": 4814,
      "##ences": 4815,
      "exertion": 4816,
      "prevent": 4817,
      "recall": 4818,
      "##neath": 4819,
      "underneath": 4820,
      "seconds": 4821,
      "craniotomy": 4822,
      "Coronary": 4823,
      "rongeur": 4824,
      "occlusion": 4825,
      "maximum": 4826,
      "STUDIES": 4827,
      "51": 4828,
      "bal": 4829,
      "list": 4830,
      "##ping": 4831,
      "##ee": 4832,
      "strict": 4833,
      "already": 4834,
      "##ends": 4835,
      "interp": 4836,
      "2005": 4837,
      "120": 4838,
      "##opharynx": 4839,
      "hospitalization": 4840,
      "Posterior": 4841,
      "estimated": 4842,
      "neurovascular": 4843,
      "sweats": 4844,
      "Pen": 4845,
      "cesarean": 4846,
      "fine": 4847,
      "##edic": 4848,
      "too": 4849,
      "come": 4850,
      "herniation": 4851,
      "request": 4852,
      "stitches": 4853,
      "##going": 4854,
      "etiology": 4855,
      "##ipped": 4856,
      "##entan": 4857,
      "##etry": 4858,
      "contour": 4859,
      "resist": 4860,
      "prone": 4861,
      "198": 4862,
      "abnormality": 4863,
      "cava": 4864,
      "appendectomy": 4865,
      "bandage": 4866,
      "lithotomy": 4867,
      "diaphragm": 4868,
      "essentially": 4869,
      "84": 4870,
      "Lab": 4871,
      "OBJECTIVE": 4872,
      "Qu": 4873,
      "Sm": 4874,
      "##ooth": 4875,
      "##eries": 4876,
      "##rex": 4877,
      "Init": 4878,
      "ide": 4879,
      "##ographic": 4880,
      "diabetic": 4881,
      "esophageal": 4882,
      "series": 4883,
      "December": 4884,
      "behavior": 4885,
      "Pathology": 4886,
      "Room": 4887,
      "Under": 4888,
      "DVT": 4889,
      "Mic": 4890,
      "sust": 4891,
      "##mm": 4892,
      "##cler": 4893,
      "neut": 4894,
      "repaired": 4895,
      "congestive": 4896,
      "Gastro": 4897,
      "##heumat": 4898,
      "ET": 4899,
      "HC": 4900,
      "fell": 4901,
      "kerat": 4902,
      "##acrom": 4903,
      "isol": 4904,
      "##hthal": 4905,
      "heav": 4906,
      "sple": 4907,
      "##apular": 4908,
      "steroid": 4909,
      "complained": 4910,
      "regard": 4911,
      "dilat": 4912,
      "frequent": 4913,
      "syncope": 4914,
      "prescrib": 4915,
      "umbilical": 4916,
      "FLUIDS": 4917,
      "impacted": 4918,
      "accomplished": 4919,
      "##hthalm": 4920,
      "might": 4921,
      "saphenous": 4922,
      "##pite": 4923,
      "##omn": 4924,
      "##ilization": 4925,
      "step": 4926,
      "prec": 4927,
      "contents": 4928,
      "laparotomy": 4929,
      "purul": 4930,
      "bifurc": 4931,
      "otitis": 4932,
      "Veress": 4933,
      "##entanyl": 4934,
      "spleen": 4935,
      "Aug": 4936,
      "Brain": 4937,
      "Or": 4938,
      "bacter": 4939,
      "drawn": 4940,
      "mig": 4941,
      "##ales": 4942,
      "platysm": 4943,
      "heard": 4944,
      "media": 4945,
      "respect": 4946,
      "conservative": 4947,
      "overall": 4948,
      "arthroplasty": 4949,
      "flaps": 4950,
      "duoden": 4951,
      "injections": 4952,
      "Without": 4953,
      "A1": 4954,
      "CL": 4955,
      "Gen": 4956,
      "TSH": 4957,
      "bar": 4958,
      "burs": 4959,
      "oun": 4960,
      "traction": 4961,
      "stem": 4962,
      "stri": 4963,
      "##chi": 4964,
      "scrotal": 4965,
      "accomm": 4966,
      "rotated": 4967,
      "primarily": 4968,
      "implantation": 4969,
      "Neuro": 4970,
      "concerns": 4971,
      "setting": 4972,
      "observed": 4973,
      "hardware": 4974,
      "ischemic": 4975,
      "CVA": 4976,
      "subdural": 4977,
      "accommod": 4978,
      "):": 4979,
      "Psych": 4980,
      "magn": 4981,
      "##ven": 4982,
      "##arcinoma": 4983,
      "##ocarcinoma": 4984,
      "recurr": 4985,
      "DIAGNOSTIC": 4986,
      "perfusion": 4987,
      "smooth": 4988,
      "osteoarthritis": 4989,
      "##gressive": 4990,
      "membrane": 4991,
      "occasionally": 4992,
      "immediate": 4993,
      "Esmar": 4994,
      "cholesterol": 4995,
      "Symptom": 4996,
      "Diabetes": 4997,
      "Esmarch": 4998,
      "Nor": 4999,
      "larg": 5000,
      "nipple": 5001,
      "wind": 5002,
      "##rid": 5003,
      "##rof": 5004,
      "##emic": 5005,
      "Angi": 5006,
      "##itten": 5007,
      "##ribution": 5008,
      "phot": 5009,
      "moderately": 5010,
      "loose": 5011,
      "entry": 5012,
      "Recurrent": 5013,
      "prophylaxis": 5014,
      "tingling": 5015,
      "Par": 5016,
      "Syn": 5017,
      "TIT": 5018,
      "cognitive": 5019,
      "##sangu": 5020,
      "##eness": 5021,
      "##isin": 5022,
      "##uly": 5023,
      "##opril": 5024,
      "operation": 5025,
      "functional": 5026,
      "morph": 5027,
      "freed": 5028,
      "bronchoscopy": 5029,
      "cortical": 5030,
      "Inclu": 5031,
      "impairment": 5032,
      "lumbosacral": 5033,
      "Full": 5034,
      "HEM": 5035,
      "Phys": 5036,
      "##tail": 5037,
      "##ched": 5038,
      "##ering": 5039,
      "##rehen": 5040,
      "##ottic": 5041,
      "##ESTIN": 5042,
      "relatively": 5043,
      "retractors": 5044,
      "window": 5045,
      "##rehens": 5046,
      "Elect": 5047,
      "RA": 5048,
      "certain": 5049,
      "##ixture": 5050,
      "##RINE": 5051,
      "##ense": 5052,
      "##osph": 5053,
      "exsangu": 5054,
      "clips": 5055,
      "##ovitis": 5056,
      "preoperatively": 5057,
      "contract": 5058,
      "preserved": 5059,
      "portal": 5060,
      "##metry": 5061,
      "inspection": 5062,
      "ischemia": 5063,
      "Since": 5064,
      "articular": 5065,
      "nit": 5066,
      "purs": 5067,
      "tried": 5068,
      "##oe": 5069,
      "##alangeal": 5070,
      "##lycer": 5071,
      "##verage": 5072,
      "##othor": 5073,
      "##ophalangeal": 5074,
      "refill": 5075,
      "generalized": 5076,
      "delay": 5077,
      "seemed": 5078,
      "curv": 5079,
      "Signs": 5080,
      "records": 5081,
      "carbohyd": 5082,
      "rupture": 5083,
      "Eyes": 5084,
      "TMs": 5085,
      "cigarettes": 5086,
      "78": 5087,
      "Eth": 5088,
      "mixture": 5089,
      "son": 5090,
      "##oam": 5091,
      "##lix": 5092,
      "beats": 5093,
      "concent": 5094,
      "##resp": 5095,
      "works": 5096,
      "suprap": 5097,
      "##echan": 5098,
      "covered": 5099,
      "sinuses": 5100,
      "reportedly": 5101,
      "##uterine": 5102,
      "##rodesis": 5103,
      "PMH": 5104,
      "analysis": 5105,
      "maxillary": 5106,
      "CONSULTATION": 5107,
      "##entricular": 5108,
      "fragment": 5109,
      "Est": 5110,
      "RR": 5111,
      "T2": 5112,
      "pus": 5113,
      "##ek": 5114,
      "##SA": 5115,
      "##ault": 5116,
      "##ouch": 5117,
      "##eled": 5118,
      "##estinal": 5119,
      "leuk": 5120,
      "surgeries": 5121,
      "##uck": 5122,
      "herniated": 5123,
      "Followup": 5124,
      "bronchoscope": 5125,
      "axial": 5126,
      "##uspid": 5127,
      "adjust": 5128,
      "pancreat": 5129,
      "TITLE": 5130,
      "##isinopril": 5131,
      "67": 5132,
      "Do": 5133,
      "Final": 5134,
      "gang": 5135,
      "matt": 5136,
      "oint": 5137,
      "##mor": 5138,
      "##heck": 5139,
      "##inks": 5140,
      "##rous": 5141,
      "##rozen": 5142,
      "##umin": 5143,
      "##ode": 5144,
      "##geon": 5145,
      "object": 5146,
      "##apse": 5147,
      "pulp": 5148,
      "eng": 5149,
      "anti": 5150,
      "glob": 5151,
      "dependent": 5152,
      "bedtime": 5153,
      "assisted": 5154,
      "osteophytes": 5155,
      "________": 5156,
      "mattress": 5157,
      "ointment": 5158,
      "33": 5159,
      "400": 5160,
      "JV": 5161,
      "laryng": 5162,
      "rales": 5163,
      "##iding": 5164,
      "##urse": 5165,
      "##opt": 5166,
      "##umed": 5167,
      "##iable": 5168,
      "obtaining": 5169,
      "quit": 5170,
      "123": 5171,
      "metatarsophalangeal": 5172,
      "directly": 5173,
      "+/": 5174,
      "Lip": 5175,
      "Spon": 5176,
      "cruc": 5177,
      "gas": 5178,
      "lat": 5179,
      "roll": 5180,
      "vo": 5181,
      "inhal": 5182,
      "##ulmonary": 5183,
      "##emporal": 5184,
      "##emuls": 5185,
      "##ONARY": 5186,
      "subt": 5187,
      "obtuse": 5188,
      "Stable": 5189,
      "diast": 5190,
      "exploration": 5191,
      "aspirated": 5192,
      "symmetrical": 5193,
      "Show": 5194,
      "PTT": 5195,
      "assessment": 5196,
      "platelets": 5197,
      "clots": 5198,
      "meniscus": 5199,
      "##acoemuls": 5200,
      "eyelid": 5201,
      "RESPIRATORY": 5202,
      "duodenum": 5203,
      "Sponge": 5204,
      "AL": 5205,
      "Le": 5206,
      "ahead": 5207,
      "dominant": 5208,
      "grow": 5209,
      "life": 5210,
      "lying": 5211,
      "none": 5212,
      "oxim": 5213,
      "rig": 5214,
      "##avix": 5215,
      "##MA": 5216,
      "##opian": 5217,
      "##stit": 5218,
      "chond": 5219,
      "mediast": 5220,
      "butt": 5221,
      "soon": 5222,
      "clearly": 5223,
      "handed": 5224,
      "calcific": 5225,
      "##ocele": 5226,
      "Plavix": 5227,
      "fingers": 5228,
      "Cardiovascular": 5229,
      "fallopian": 5230,
      "replaced": 5231,
      "325": 5232,
      "causing": 5233,
      "##peritoneal": 5234,
      "64": 5235,
      "Ant": 5236,
      "Ms": 5237,
      "Sy": 5238,
      "##OB": 5239,
      "##raumbilical": 5240,
      "##odin": 5241,
      "acet": 5242,
      "doctor": 5243,
      "##lete": 5244,
      "Vicodin": 5245,
      "##iculous": 5246,
      "baseline": 5247,
      "concerned": 5248,
      "%.,": 5249,
      "cephalic": 5250,
      "CLIN": 5251,
      "Dil": 5252,
      "HR": 5253,
      "cast": 5254,
      "laid": 5255,
      "mill": 5256,
      "pectoral": 5257,
      "##rotic": 5258,
      "##emoral": 5259,
      "##amer": 5260,
      "##rief": 5261,
      "##oval": 5262,
      "##uality": 5263,
      "points": 5264,
      "grav": 5265,
      "electro": 5266,
      "Aspir": 5267,
      "##orrhea": 5268,
      "Alert": 5269,
      "doub": 5270,
      "couns": 5271,
      "believe": 5272,
      "ICU": 5273,
      "Ser": 5274,
      "dialysis": 5275,
      "iron": 5276,
      "squ": 5277,
      "ves": 5278,
      "##dden": 5279,
      "##cm": 5280,
      "##ID": 5281,
      "anch": 5282,
      "##ache": 5283,
      "sudden": 5284,
      "##oker": 5285,
      "deflated": 5286,
      "distribution": 5287,
      "urg": 5288,
      "break": 5289,
      "probable": 5290,
      "etc": 5291,
      "Mayo": 5292,
      "XXX": 5293,
      "SURGERY": 5294,
      "CLINICAL": 5295,
      "PE": 5296,
      "pouch": 5297,
      "##onchi": 5298,
      "##itrac": 5299,
      "##ctomy": 5300,
      "##acitrac": 5301,
      "##ida": 5302,
      "##raz": 5303,
      "hair": 5304,
      "underg": 5305,
      "represent": 5306,
      "enough": 5307,
      "elevator": 5308,
      "##odyn": 5309,
      "tempor": 5310,
      "fluids": 5311,
      "rhonchi": 5312,
      "profile": 5313,
      "auditory": 5314,
      "Estimated": 5315,
      "cruciate": 5316,
      "##acitracin": 5317,
      "BRI": 5318,
      "LEF": 5319,
      "qd": 5320,
      "vel": 5321,
      "##moker": 5322,
      "##iant": 5323,
      "##IG": 5324,
      "##PR": 5325,
      "rehab": 5326,
      "##neal": 5327,
      "retin": 5328,
      "INTER": 5329,
      "tubal": 5330,
      "effort": 5331,
      "##sequent": 5332,
      "cannulated": 5333,
      "written": 5334,
      "hemorrhoids": 5335,
      "##itude": 5336,
      "instilled": 5337,
      "laboratory": 5338,
      "mobilized": 5339,
      "BRIEF": 5340,
      "LEFT": 5341,
      "GAST": 5342,
      "nurse": 5343,
      "##oagulation": 5344,
      "##sc": 5345,
      "##lavicular": 5346,
      "##icitis": 5347,
      "##ann": 5348,
      "##ithiasis": 5349,
      "ste": 5350,
      "##opelvic": 5351,
      "##amed": 5352,
      "arri": 5353,
      "##anding": 5354,
      "drinks": 5355,
      "STAT": 5356,
      "##acerb": 5357,
      "digit": 5358,
      "roots": 5359,
      "verbal": 5360,
      "prednisone": 5361,
      "periosteum": 5362,
      "recurrence": 5363,
      "43": 5364,
      "Bec": 5365,
      "July": 5366,
      "Lid": 5367,
      "cand": 5368,
      "mixed": 5369,
      "vocal": 5370,
      "##body": 5371,
      "##acement": 5372,
      "signed": 5373,
      "2004": 5374,
      "soak": 5375,
      "paral": 5376,
      "relief": 5377,
      "delt": 5378,
      "capsul": 5379,
      "penile": 5380,
      "observation": 5381,
      "White": 5382,
      "service": 5383,
      "documented": 5384,
      "suspicious": 5385,
      "diastolic": 5386,
      "veloc": 5387,
      "Because": 5388,
      "AV": 5389,
      "Gl": 5390,
      "sem": 5391,
      "revision": 5392,
      "##optic": 5393,
      "asym": 5394,
      "##seous": 5395,
      "resect": 5396,
      "endoscope": 5397,
      "epic": 5398,
      "imping": 5399,
      "gets": 5400,
      "suggestive": 5401,
      "respond": 5402,
      "intracranial": 5403,
      "Carotid": 5404,
      "comfortable": 5405,
      "Insertion": 5406,
      "69": 5407,
      "hom": 5408,
      "sul": 5409,
      "##loc": 5410,
      "therap": 5411,
      "##adol": 5412,
      "herself": 5413,
      "portions": 5414,
      "relie": 5415,
      "##uterol": 5416,
      "markedly": 5417,
      "patellar": 5418,
      "gauze": 5419,
      "particularly": 5420,
      "pigtail": 5421,
      "74": 5422,
      "Flu": 5423,
      "Ob": 5424,
      "sore": 5425,
      "##cell": 5426,
      "##AD": 5427,
      "##onate": 5428,
      "##alc": 5429,
      "exacerb": 5430,
      "uns": 5431,
      "approximate": 5432,
      "2000": 5433,
      "minim": 5434,
      "##TIONAL": 5435,
      "dilator": 5436,
      "DETAILS": 5437,
      "hallux": 5438,
      "brachial": 5439,
      "liters": 5440,
      "purulent": 5441,
      "66": 5442,
      "EOM": 5443,
      "Family": 5444,
      "Jud": 5445,
      "Oper": 5446,
      "crease": 5447,
      "##mine": 5448,
      "##ulosis": 5449,
      "##stall": 5450,
      "intr": 5451,
      "##istration": 5452,
      "##uccessful": 5453,
      "tuberc": 5454,
      "drilled": 5455,
      "protect": 5456,
      "##oxin": 5457,
      "##ances": 5458,
      "tonsillar": 5459,
      "##osteal": 5460,
      "recommendations": 5461,
      "__________": 5462,
      "neoplasm": 5463,
      "##acromial": 5464,
      "undergone": 5465,
      "39": 5466,
      "42": 5467,
      "44": 5468,
      "52": 5469,
      "57": 5470,
      "MS": 5471,
      "cranial": 5472,
      "frozen": 5473,
      "nail": 5474,
      "sodium": 5475,
      "##uated": 5476,
      "##gra": 5477,
      "##CL": 5478,
      "##atin": 5479,
      "##ters": 5480,
      "##iaz": 5481,
      "##ubitus": 5482,
      "subst": 5483,
      "testicle": 5484,
      "partially": 5485,
      "deepened": 5486,
      "standing": 5487,
      "fixed": 5488,
      "##raged": 5489,
      "bulk": 5490,
      "effects": 5491,
      "obese": 5492,
      "Colon": 5493,
      "excessive": 5494,
      "HCT": 5495,
      "Physical": 5496,
      "oximetry": 5497,
      "GASTRO": 5498,
      "00": 5499,
      "Oral": 5500,
      "mechan": 5501,
      "##SION": 5502,
      "##hib": 5503,
      "##oratory": 5504,
      "toget": 5505,
      "##anu": 5506,
      "stiff": 5507,
      "##ocet": 5508,
      "##illa": 5509,
      "spra": 5510,
      "cheek": 5511,
      "nodules": 5512,
      "absent": 5513,
      "ulcers": 5514,
      "bulging": 5515,
      "maternal": 5516,
      "shaft": 5517,
      "wanted": 5518,
      "periosteal": 5519,
      "beginning": 5520,
      "responses": 5521,
      "discontinued": 5522,
      "pulposus": 5523,
      "together": 5524,
      "76": 5525,
      "Dist": 5526,
      "FHX": 5527,
      "SHX": 5528,
      "hiat": 5529,
      "wide": 5530,
      "##off": 5531,
      "##ley": 5532,
      "##amous": 5533,
      "##ocle": 5534,
      "perine": 5535,
      "infusion": 5536,
      "##hyl": 5537,
      "##INARY": 5538,
      "compared": 5539,
      "Incision": 5540,
      "##aneu": 5541,
      "decubitus": 5542,
      "dysarth": 5543,
      "satur": 5544,
      "find": 5545,
      "calcification": 5546,
      "measure": 5547,
      "SUMM": 5548,
      "stools": 5549,
      "understands": 5550,
      "##aresis": 5551,
      "SUMMARY": 5552,
      "91": 5553,
      "COR": 5554,
      "Def": 5555,
      "dementia": 5556,
      "gently": 5557,
      "sound": 5558,
      "##most": 5559,
      "##elect": 5560,
      "##gl": 5561,
      "##ises": 5562,
      "##icteric": 5563,
      "##imeter": 5564,
      "##phasia": 5565,
      "infected": 5566,
      "Through": 5567,
      "contraction": 5568,
      "surgeon": 5569,
      "calf": 5570,
      "Hern": 5571,
      "adequately": 5572,
      "##INTESTIN": 5573,
      "Repair": 5574,
      "ensure": 5575,
      "genital": 5576,
      "GASTROINTESTIN": 5577,
      "GASTROINTESTINAL": 5578,
      "L2": 5579,
      "bile": 5580,
      "laryngeal": 5581,
      "lady": 5582,
      "maneu": 5583,
      "##yed": 5584,
      "##PH": 5585,
      "tox": 5586,
      "reb": 5587,
      "##ulate": 5588,
      "##opic": 5589,
      "heel": 5590,
      "##och": 5591,
      "##STRU": 5592,
      "endoc": 5593,
      "ophthalm": 5594,
      "groove": 5595,
      "gradient": 5596,
      "understanding": 5597,
      "immun": 5598,
      "laser": 5599,
      "sustained": 5600,
      "prescribed": 5601,
      "platysma": 5602,
      "61": 5603,
      "Bab": 5604,
      "doses": 5605,
      "vac": 5606,
      "##mia": 5607,
      "##igo": 5608,
      "stones": 5609,
      "##TIT": 5610,
      "almost": 5611,
      "##gnosis": 5612,
      "treatments": 5613,
      "neurom": 5614,
      "tracheostomy": 5615,
      "behind": 5616,
      "Kerlix": 5617,
      "##acoemulsification": 5618,
      "June": 5619,
      "NOT": 5620,
      "burn": 5621,
      "tent": 5622,
      "##ask": 5623,
      "thumb": 5624,
      "##acic": 5625,
      "##opia": 5626,
      "notch": 5627,
      "percent": 5628,
      "coming": 5629,
      "score": 5630,
      "##ideo": 5631,
      "##intestinal": 5632,
      "pull": 5633,
      "MEDS": 5634,
      "drained": 5635,
      "cystoscopy": 5636,
      "dilation": 5637,
      "solid": 5638,
      "describes": 5639,
      "fields": 5640,
      "Review": 5641,
      "marrow": 5642,
      ".\",": 5643,
      "T12": 5644,
      "Coord": 5645,
      "shape": 5646,
      "attachments": 5647,
      "soaked": 5648,
      "Father": 5649,
      "Giv": 5650,
      "pet": 5651,
      "sized": 5652,
      "##rist": 5653,
      "##OH": 5654,
      "##bearing": 5655,
      "##zym": 5656,
      "##ote": 5657,
      "##idom": 5658,
      "##actic": 5659,
      "index": 5660,
      "cyt": 5661,
      "guarding": 5662,
      "lungs": 5663,
      "pneumatic": 5664,
      "split": 5665,
      "hepatitis": 5666,
      "original": 5667,
      "crack": 5668,
      "piece": 5669,
      "JVD": 5670,
      "56": 5671,
      "Oropharynx": 5672,
      "lav": 5673,
      "##OUR": 5674,
      "##erous": 5675,
      "tomor": 5676,
      "revers": 5677,
      "##uments": 5678,
      "conduction": 5679,
      "pains": 5680,
      "Need": 5681,
      "collection": 5682,
      "ligation": 5683,
      "distention": 5684,
      "expose": 5685,
      "infections": 5686,
      "Spe": 5687,
      "factors": 5688,
      "instability": 5689,
      "cortex": 5690,
      "Noncontributory": 5691,
      "lamina": 5692,
      "correction": 5693,
      "matter": 5694,
      "tomorrow": 5695,
      "85": 5696,
      "Normocephalic": 5697,
      "Pelvic": 5698,
      "bi": 5699,
      "salp": 5700,
      "vir": 5701,
      "##ius": 5702,
      "##TAL": 5703,
      "anter": 5704,
      "suicidal": 5705,
      "##irst": 5706,
      "events": 5707,
      "##ISSION": 5708,
      "coronal": 5709,
      "Insp": 5710,
      "Ass": 5711,
      "quadrants": 5712,
      "true": 5713,
      "Abdominal": 5714,
      "assistance": 5715,
      "details": 5716,
      "##ocytes": 5717,
      "consulted": 5718,
      "tricuspid": 5719,
      "ADMISSION": 5720,
      "gangl": 5721,
      "candid": 5722,
      "rebound": 5723,
      "Given": 5724,
      "salping": 5725,
      "59": 5726,
      "dict": 5727,
      "yell": 5728,
      "##rim": 5729,
      "##ses": 5730,
      "##ycin": 5731,
      "##kes": 5732,
      "##TH": 5733,
      "##enia": 5734,
      "##ella": 5735,
      "normally": 5736,
      "##gnostic": 5737,
      "parasp": 5738,
      "involve": 5739,
      "holes": 5740,
      "create": 5741,
      "trying": 5742,
      "nonsmoker": 5743,
      "intercostal": 5744,
      "Speech": 5745,
      "86": 5746,
      "DD": 5747,
      "Ind": 5748,
      "Janu": 5749,
      "fit": 5750,
      "mil": 5751,
      "##ups": 5752,
      "##UTIONAL": 5753,
      "##HT": 5754,
      "##icip": 5755,
      "##ilitation": 5756,
      "those": 5757,
      "##urator": 5758,
      "##usive": 5759,
      "##ectal": 5760,
      "##econd": 5761,
      "##izations": 5762,
      "scrotum": 5763,
      "aware": 5764,
      "insufflated": 5765,
      "CONSTIT": 5766,
      "gradually": 5767,
      "ileum": 5768,
      "hook": 5769,
      "condyle": 5770,
      "rigid": 5771,
      "doubly": 5772,
      "CONSTITUTIONAL": 5773,
      "63": 5774,
      "Di": 5775,
      "Derm": 5776,
      "birth": 5777,
      "oment": 5778,
      "##inations": 5779,
      "##ases": 5780,
      "##oring": 5781,
      "displaced": 5782,
      "orific": 5783,
      "##perm": 5784,
      "##oneph": 5785,
      "##phin": 5786,
      "recheck": 5787,
      "##obic": 5788,
      "word": 5789,
      "glenoid": 5790,
      "resting": 5791,
      "administration": 5792,
      "coughing": 5793,
      "maintain": 5794,
      "humerus": 5795,
      "Visual": 5796,
      "melena": 5797,
      "Lidocaine": 5798,
      "Is": 5799,
      "Some": 5800,
      "far": 5801,
      "making": 5802,
      "##sed": 5803,
      "##ah": 5804,
      "##here": 5805,
      "##ork": 5806,
      "##legia": 5807,
      "##oppl": 5808,
      "##chol": 5809,
      "surf": 5810,
      "corneal": 5811,
      "suprac": 5812,
      "hypertrophic": 5813,
      "healed": 5814,
      "hypothyroidism": 5815,
      "stapler": 5816,
      "Peripheral": 5817,
      "##psych": 5818,
      "isolated": 5819,
      "58": 5820,
      "Disc": 5821,
      "cram": 5822,
      "dam": 5823,
      "frag": 5824,
      "harv": 5825,
      "##oks": 5826,
      "##hing": 5827,
      "##aph": 5828,
      "##IZ": 5829,
      "##alth": 5830,
      "forward": 5831,
      "##ogast": 5832,
      "HIV": 5833,
      "##ober": 5834,
      "secret": 5835,
      "obturator": 5836,
      "##MPH": 5837,
      "ampl": 5838,
      "hyperlipidemia": 5839,
      "##ITOUR": 5840,
      "become": 5841,
      "GENITOUR": 5842,
      "##lier": 5843,
      "Scler": 5844,
      "front": 5845,
      "nasopharynx": 5846,
      "##iliac": 5847,
      "hallucinations": 5848,
      "heavy": 5849,
      "ounces": 5850,
      "ALT": 5851,
      "dysarthria": 5852,
      "GENITOURINARY": 5853,
      "53": 5854,
      "lap": 5855,
      "pyel": 5856,
      "##cef": 5857,
      "##bed": 5858,
      "##YMPH": 5859,
      "##itu": 5860,
      "##arc": 5861,
      "##vem": 5862,
      "prop": 5863,
      "incident": 5864,
      "adher": 5865,
      "spinous": 5866,
      "##irect": 5867,
      "##psis": 5868,
      "cellulitis": 5869,
      "planning": 5870,
      "center": 5871,
      "ankles": 5872,
      "clinically": 5873,
      "sugar": 5874,
      "bulb": 5875,
      "Subsequently": 5876,
      "suspected": 5877,
      "curettage": 5878,
      "cephal": 5879,
      "adnexal": 5880,
      "embolism": 5881,
      "AR": 5882,
      "Of": 5883,
      "bund": 5884,
      "don": 5885,
      "dent": 5886,
      "##rition": 5887,
      "##itivity": 5888,
      "##rose": 5889,
      "##rapped": 5890,
      "selective": 5891,
      "spell": 5892,
      "aggressive": 5893,
      "##urrently": 5894,
      "manip": 5895,
      "despite": 5896,
      "##ullary": 5897,
      "##aves": 5898,
      "phosph": 5899,
      "coag": 5900,
      "protected": 5901,
      "receive": 5902,
      "team": 5903,
      "debris": 5904,
      "psychiatric": 5905,
      "##iliary": 5906,
      "dimin": 5907,
      "raised": 5908,
      "anatomic": 5909,
      "##ocleidom": 5910,
      "##ocleidomastoid": 5911,
      "LYMPH": 5912,
      "Sodium": 5913,
      "dried": 5914,
      "ice": 5915,
      "rather": 5916,
      "rheumat": 5917,
      "vest": 5918,
      "vault": 5919,
      "##oh": 5920,
      "##irop": 5921,
      "##uble": 5922,
      "##ger": 5923,
      "##val": 5924,
      "##erred": 5925,
      "##anual": 5926,
      "##omb": 5927,
      "##osyn": 5928,
      "##ulus": 5929,
      "##imes": 5930,
      "##ception": 5931,
      "Novem": 5932,
      "Ancef": 5933,
      "catheters": 5934,
      "INSTRU": 5935,
      "minor": 5936,
      "##ossible": 5937,
      "##phalus": 5938,
      "##oxysm": 5939,
      "digits": 5940,
      "Pulmonary": 5941,
      "Repeat": 5942,
      "filling": 5943,
      "yellow": 5944,
      "surfaces": 5945,
      "##iropract": 5946,
      "November": 5947,
      "##oxysmal": 5948,
      "Currently": 5949,
      "Gross": 5950,
      "Jack": 5951,
      "Pat": 5952,
      "bil": 5953,
      "born": 5954,
      "volar": 5955,
      ".,*": 5956,
      "##otome": 5957,
      "##otemporal": 5958,
      "##utrition": 5959,
      "black": 5960,
      "cla": 5961,
      "##articular": 5962,
      "##ibond": 5963,
      "occipital": 5964,
      "pharynx": 5965,
      "speed": 5966,
      "Spinal": 5967,
      "curette": 5968,
      "liquid": 5969,
      "exudate": 5970,
      "pronator": 5971,
      "Ethibond": 5972,
      "##optysis": 5973,
      "##amera": 5974,
      "Inspection": 5975,
      "omentum": 5976,
      "54": 5977,
      "Des": 5978,
      "Doppl": 5979,
      "ell": 5980,
      "job": 5981,
      "##night": 5982,
      "##anesthesia": 5983,
      "##aming": 5984,
      "##ubin": 5985,
      "subsequent": 5986,
      "New": 5987,
      "complication": 5988,
      "amput": 5989,
      "mean": 5990,
      "conditions": 5991,
      "distended": 5992,
      "beta": 5993,
      "coagulation": 5994,
      "Adv": 5995,
      "staff": 5996,
      "progressively": 5997,
      "NEUROLOGICAL": 5998,
      "consciousness": 5999,
      "Additional": 6000,
      "epigastric": 6001,
      "suprapubic": 6002,
      "pectoralis": 6003,
      "paraspinal": 6004,
      "fragments": 6005,
      "EG": 6006,
      "First": 6007,
      "MM": 6008,
      "Port": 6009,
      "cup": 6010,
      "ect": 6011,
      "gener": 6012,
      "quality": 6013,
      "sperm": 6014,
      "##cing": 6015,
      "##IR": 6016,
      "##eling": 6017,
      "stre": 6018,
      "placing": 6019,
      "radical": 6020,
      "longer": 6021,
      "fibrosis": 6022,
      "seeing": 6023,
      "##fortun": 6024,
      "bronchus": 6025,
      "laparoscopy": 6026,
      "##oform": 6027,
      "deficiency": 6028,
      "unclear": 6029,
      "sternocleidomastoid": 6030,
      "trouble": 6031,
      "Small": 6032,
      "NOTE": 6033,
      "46": 6034,
      "AT": 6035,
      "By": 6036,
      "CAT": 6037,
      "RH": 6038,
      "crit": 6039,
      "dural": 6040,
      "nic": 6041,
      "pill": 6042,
      "vit": 6043,
      "##IO": 6044,
      "##eli": 6045,
      "##ulature": 6046,
      "##raine": 6047,
      "exact": 6048,
      "##riosis": 6049,
      "##ivitamin": 6050,
      "anything": 6051,
      "##uscular": 6052,
      "admits": 6053,
      "screening": 6054,
      "hospitalized": 6055,
      "vertical": 6056,
      "Plan": 6057,
      "malle": 6058,
      "Spec": 6059,
      "situation": 6060,
      "track": 6061,
      "Kerr": 6062,
      "##olys": 6063,
      "determined": 6064,
      "carbohydrate": 6065,
      "STATUS": 6066,
      "velocity": 6067,
      "impingement": 6068,
      "88": 6069,
      "AST": 6070,
      "HA": 6071,
      "Ir": 6072,
      "Oct": 6073,
      "VIS": 6074,
      "foc": 6075,
      "##FT": 6076,
      "##erobic": 6077,
      "##inate": 6078,
      "rein": 6079,
      "onto": 6080,
      "##stem": 6081,
      "##inear": 6082,
      "spaces": 6083,
      "##roscler": 6084,
      "##ontan": 6085,
      "postp": 6086,
      "meals": 6087,
      "##ophor": 6088,
      "Station": 6089,
      "distraction": 6090,
      "tolerate": 6091,
      "##weight": 6092,
      "frequently": 6093,
      "Subcutaneous": 6094,
      "debrided": 6095,
      "mesh": 6096,
      "formation": 6097,
      "##headed": 6098,
      "encouraged": 6099,
      "endometrial": 6100,
      "shaped": 6101,
      "widely": 6102,
      "##oprolol": 6103,
      "program": 6104,
      "Ultrasound": 6105,
      "resistance": 6106,
      "##IGHT": 6107,
      "Sclerae": 6108,
      "71": 6109,
      "82": 6110,
      "Bi": 6111,
      "fres": 6112,
      "sum": 6113,
      "void": 6114,
      "##oin": 6115,
      "##iol": 6116,
      "##lec": 6117,
      "##irubin": 6118,
      "noct": 6119,
      "amb": 6120,
      "identification": 6121,
      "guided": 6122,
      "Allis": 6123,
      "130": 6124,
      "facility": 6125,
      "##urgical": 6126,
      "healing": 6127,
      "sacral": 6128,
      "Sept": 6129,
      "##rady": 6130,
      "worsened": 6131,
      "nasol": 6132,
      "arthroscopic": 6133,
      "ostium": 6134,
      "terms": 6135,
      "August": 6136,
      "January": 6137,
      "Doppler": 6138,
      "Bact": 6139,
      "B12": 6140,
      "OD": 6141,
      "Sever": 6142,
      "basal": 6143,
      "kept": 6144,
      "lack": 6145,
      "mening": 6146,
      "pupils": 6147,
      "rod": 6148,
      "tin": 6149,
      "tympanic": 6150,
      "##pus": 6151,
      "##yr": 6152,
      "##aund": 6153,
      "##lined": 6154,
      "##CE": 6155,
      "##eds": 6156,
      "##umerous": 6157,
      "projection": 6158,
      "sepsis": 6159,
      "hab": 6160,
      "interbody": 6161,
      "presence": 6162,
      "##operitone": 6163,
      "educ": 6164,
      "improving": 6165,
      "earlier": 6166,
      "labrum": 6167,
      "hold": 6168,
      "nuclear": 6169,
      "attachment": 6170,
      "EGD": 6171,
      "October": 6172,
      "Bre": 6173,
      "##DA": 6174,
      "stap": 6175,
      "##ime": 6176,
      "disloc": 6177,
      "athe": 6178,
      "infraumbilical": 6179,
      "enzym": 6180,
      "extremely": 6181,
      "restrict": 6182,
      "mucous": 6183,
      "adenocarcinoma": 6184,
      "##insk": 6185,
      "##arring": 6186,
      "serial": 6187,
      "tonsils": 6188,
      "bruit": 6189,
      "indicates": 6190,
      "components": 6191,
      "tenaculum": 6192,
      "Neurological": 6193,
      "osteophyte": 6194,
      "Benign": 6195,
      "Moder": 6196,
      "panel": 6197,
      "candidate": 6198,
      "Jackson": 6199,
      "##ophorectomy": 6200,
      "77": 6201,
      "Act": 6202,
      "BAC": 6203,
      "ED": 6204,
      "HPI": 6205,
      "Sample": 6206,
      "camera": 6207,
      "tracheal": 6208,
      "video": 6209,
      "##anium": 6210,
      "things": 6211,
      "##ifying": 6212,
      "scr": 6213,
      "hemoptysis": 6214,
      "retaining": 6215,
      "##ildren": 6216,
      "regions": 6217,
      "gives": 6218,
      "##olemia": 6219,
      "firm": 6220,
      "arthrodesis": 6221,
      "grafting": 6222,
      "load": 6223,
      "returns": 6224,
      "thoracotomy": 6225,
      "T11": 6226,
      "ovaries": 6227,
      "Informed": 6228,
      "hydrocephalus": 6229,
      "cardiopulmonary": 6230,
      "CORONARY": 6231,
      "87": 6232,
      "Dig": 6233,
      "cric": 6234,
      "ears": 6235,
      "sour": 6236,
      "wished": 6237,
      "##kay": 6238,
      "##back": 6239,
      "##hex": 6240,
      "##omed": 6241,
      "##osmet": 6242,
      "##ocks": 6243,
      "intake": 6244,
      "abdu": 6245,
      "weigh": 6246,
      "##mentation": 6247,
      "##uccal": 6248,
      "2002": 6249,
      "systemic": 6250,
      "140": 6251,
      "laparoscope": 6252,
      "gastroesophageal": 6253,
      "bicarb": 6254,
      "cholecystitis": 6255,
      "##orbid": 6256,
      "cycle": 6257,
      "dilatation": 6258,
      "respectively": 6259,
      "##othorax": 6260,
      "##osmetic": 6261,
      "Ax": 6262,
      "Ped": 6263,
      "bacitracin": 6264,
      "code": 6265,
      "##ts": 6266,
      "##DIA": 6267,
      "##orus": 6268,
      "##utum": 6269,
      "stability": 6270,
      "perone": 6271,
      "placent": 6272,
      "nodule": 6273,
      "calcane": 6274,
      "demonstrate": 6275,
      "lightheaded": 6276,
      "apical": 6277,
      "##ometimes": 6278,
      "broad": 6279,
      "gastrostomy": 6280,
      "titanium": 6281,
      "rhinitis": 6282,
      "dermat": 6283,
      "deviation": 6284,
      "waiting": 6285,
      "Aspirin": 6286,
      "stiffness": 6287,
      "Kerrison": 6288,
      "600": 6289,
      "Back": 6290,
      "Due": 6291,
      "Trache": 6292,
      "aphasia": 6293,
      "bring": 6294,
      "pitu": 6295,
      "##gus": 6296,
      "##ROSS": 6297,
      "##rew": 6298,
      "##idine": 6299,
      "stain": 6300,
      "fores": 6301,
      "##irr": 6302,
      "##plopia": 6303,
      "spread": 6304,
      "scale": 6305,
      "unchanged": 6306,
      "##ograms": 6307,
      "evident": 6308,
      "meticulous": 6309,
      "indiv": 6310,
      "##arest": 6311,
      "1000": 6312,
      "##elfoam": 6313,
      "canals": 6314,
      "##roduc": 6315,
      "PSA": 6316,
      "foraminal": 6317,
      "finally": 6318,
      "anatomy": 6319,
      "CPT": 6320,
      "END": 6321,
      "transfusion": 6322,
      "tremor": 6323,
      "growth": 6324,
      "involvement": 6325,
      "ARTER": 6326,
      "Ble": 6327,
      "Based": 6328,
      "jaund": 6329,
      "##burn": 6330,
      "##**": 6331,
      "stret": 6332,
      "##romal": 6333,
      "##unch": 6334,
      "shift": 6335,
      "meal": 6336,
      "atten": 6337,
      "glass": 6338,
      "calcified": 6339,
      "appendicitis": 6340,
      "suggested": 6341,
      "##esterolemia": 6342,
      "Reveal": 6343,
      "leads": 6344,
      "##aracter": 6345,
      "tape": 6346,
      "balance": 6347,
      "stricture": 6348,
      "Include": 6349,
      "##cholesterolemia": 6350,
      "placenta": 6351,
      "De": 6352,
      "Low": 6353,
      "OS": 6354,
      "Renal": 6355,
      "card": 6356,
      "drop": 6357,
      "late": 6358,
      "power": 6359,
      "social": 6360,
      "tal": 6361,
      "##YN": 6362,
      "##45": 6363,
      "##iter": 6364,
      "##reen": 6365,
      "##ATIENT": 6366,
      "##ouse": 6367,
      "prem": 6368,
      "medium": 6369,
      "##ractory": 6370,
      "complain": 6371,
      "complicated": 6372,
      "attack": 6373,
      "paroxysmal": 6374,
      "ventral": 6375,
      "diplopia": 6376,
      "particip": 6377,
      "usually": 6378,
      "nonc": 6379,
      "##ompan": 6380,
      "##USION": 6381,
      "endometriosis": 6382,
      "ENT": 6383,
      "ETOH": 6384,
      "Lipitor": 6385,
      "voice": 6386,
      "genitalia": 6387,
      "Cont": 6388,
      "Gelfoam": 6389,
      "Mid": 6390,
      "Perc": 6391,
      "SH": 6392,
      "Serv": 6393,
      "nor": 6394,
      "##aver": 6395,
      "##lithiasis": 6396,
      "##roiliac": 6397,
      "##osing": 6398,
      "thread": 6399,
      "##izer": 6400,
      "scarring": 6401,
      "subacromial": 6402,
      "##kins": 6403,
      "##racted": 6404,
      "cardiovascular": 6405,
      "grafts": 6406,
      "sensitivity": 6407,
      "See": 6408,
      "processes": 6409,
      "CARDIA": 6410,
      "Decreased": 6411,
      "skull": 6412,
      "capillary": 6413,
      "mammary": 6414,
      "hydrocele": 6415,
      "fundus": 6416,
      "caudal": 6417,
      "albuterol": 6418,
      "Musculoskeletal": 6419,
      "lifting": 6420,
      "maneuver": 6421,
      "CARDIAC": 6422,
      "79": 6423,
      "dull": 6424,
      "phen": 6425,
      "turn": 6426,
      "thus": 6427,
      "##imanual": 6428,
      "atelect": 6429,
      "Height": 6430,
      "##ortion": 6431,
      "##illes": 6432,
      "Three": 6433,
      "closely": 6434,
      "epile": 6435,
      "##ophag": 6436,
      "anteg": 6437,
      "weighted": 6438,
      "protr": 6439,
      "explored": 6440,
      "mostly": 6441,
      "cleansed": 6442,
      "instit": 6443,
      "exposing": 6444,
      "glands": 6445,
      "humeral": 6446,
      "leaving": 6447,
      "##CTIONS": 6448,
      "Colonoscopy": 6449,
      "INSTRUCTIONS": 6450,
      "BMP": 6451,
      "DE": 6452,
      "GROSS": 6453,
      "Muc": 6454,
      "PC": 6455,
      "eros": 6456,
      "mac": 6457,
      "##men": 6458,
      "##x4": 6459,
      "##atible": 6460,
      "##etic": 6461,
      "##thral": 6462,
      "caused": 6463,
      "compatible": 6464,
      "symptomatic": 6465,
      "desires": 6466,
      "against": 6467,
      "flexible": 6468,
      "cords": 6469,
      "localized": 6470,
      "viable": 6471,
      "Reco": 6472,
      "terminal": 6473,
      "##ways": 6474,
      "##roduoden": 6475,
      "##TING": 6476,
      "cardioplegia": 6477,
      "anticoagulation": 6478,
      "orthopnea": 6479,
      "gestation": 6480,
      "Evaluation": 6481,
      "hiatal": 6482,
      "cytology": 6483,
      "##roduodenoscopy": 6484,
      "Biop": 6485,
      "Gu": 6486,
      "Pap": 6487,
      "Uter": 6488,
      "cul": 6489,
      "mach": 6490,
      "tet": 6491,
      "##rates": 6492,
      "##bread": 6493,
      "##isp": 6494,
      "##ots": 6495,
      "##odone": 6496,
      "alone": 6497,
      "##chan": 6498,
      "seated": 6499,
      "medicine": 6500,
      "retired": 6501,
      "includes": 6502,
      "himself": 6503,
      "cardio": 6504,
      "lymphoma": 6505,
      "smoker": 6506,
      "deficit": 6507,
      "varic": 6508,
      "Esophag": 6509,
      "bifurcation": 6510,
      "Symptoms": 6511,
      "larger": 6512,
      "certainly": 6513,
      "acetab": 6514,
      "##scapular": 6515,
      "salpingo": 6516,
      "damage": 6517,
      "secretions": 6518,
      "cephalad": 6519,
      "bilirubin": 6520,
      "EC": 6521,
      "MAC": 6522,
      "YYY": 6523,
      "aid": 6524,
      "bolus": 6525,
      "brief": 6526,
      "eat": 6527,
      "fentanyl": 6528,
      "jaw": 6529,
      "waves": 6530,
      "strap": 6531,
      "##ifically": 6532,
      "sputum": 6533,
      "character": 6534,
      "##omycin": 6535,
      "##abolic": 6536,
      "hemodyn": 6537,
      "##ractable": 6538,
      "amp": 6539,
      "drift": 6540,
      "glans": 6541,
      "accompan": 6542,
      "##lioma": 6543,
      "hydr": 6544,
      "Medrol": 6545,
      "receiving": 6546,
      "instruments": 6547,
      "##aquin": 6548,
      "##aucoma": 6549,
      "spontaneously": 6550,
      "preparation": 6551,
      "malignancy": 6552,
      "Levaquin": 6553,
      "accommodation": 6554,
      "##respons": 6555,
      "asymmetry": 6556,
      "Recovery": 6557,
      "YYYY": 6558,
      "Ach": 6559,
      "Li": 6560,
      "Possible": 6561,
      "mastoid": 6562,
      "own": 6563,
      "okay": 6564,
      "parest": 6565,
      "war": 6566,
      "wrapped": 6567,
      "##eath": 6568,
      "##yond": 6569,
      "##form": 6570,
      "##enchym": 6571,
      "##elding": 6572,
      "##illitis": 6573,
      "seven": 6574,
      "##onday": 6575,
      "agree": 6576,
      "sternal": 6577,
      "emerg": 6578,
      "beneath": 6579,
      "development": 6580,
      "##hold": 6581,
      "suggesting": 6582,
      "defects": 6583,
      "fingerbread": 6584,
      "constant": 6585,
      "conjunctiva": 6586,
      "Neurologic": 6587,
      "ventriculography": 6588,
      "osseous": 6589,
      "gestational": 6590,
      "turbinate": 6591,
      "Orth": 6592,
      "scrub": 6593,
      "fingerbreadth": 6594,
      "Flex": 6595,
      "Monday": 6596,
      "live": 6597,
      "lisinopril": 6598,
      "x1": 6599,
      "real": 6600,
      "##standing": 6601,
      "exchanged": 6602,
      "undyed": 6603,
      "retention": 6604,
      "paracent": 6605,
      "calculated": 6606,
      "prostatic": 6607,
      "Integ": 6608,
      "walker": 6609,
      "Pulses": 6610,
      "moving": 6611,
      "begun": 6612,
      "attempts": 6613,
      "April": 6614,
      "exacerbation": 6615,
      "##ogastroduodenoscopy": 6616,
      "amplitude": 6617,
      "nicely": 6618,
      "VISIT": 6619,
      "summ": 6620,
      "##inski": 6621,
      "pituitary": 6622,
      "Dem": 6623,
      "Mc": 6624,
      "Om": 6625,
      "ON": 6626,
      "dark": 6627,
      "##rhythm": 6628,
      "##king": 6629,
      "##oracic": 6630,
      "##leb": 6631,
      "##oust": 6632,
      "##ilinear": 6633,
      "##esting": 6634,
      "##estring": 6635,
      "##riend": 6636,
      "clipped": 6637,
      "##ovenous": 6638,
      "remember": 6639,
      "comprom": 6640,
      "cancell": 6641,
      "##urring": 6642,
      "tendons": 6643,
      "##oked": 6644,
      "grams": 6645,
      "197": 6646,
      "##itorum": 6647,
      "##ropon": 6648,
      "##ronchial": 6649,
      "sedated": 6650,
      "sacroiliac": 6651,
      "Prost": 6652,
      "pediatric": 6653,
      "digitorum": 6654,
      "urethral": 6655,
      "looked": 6656,
      "Conjunctiv": 6657,
      "enhancement": 6658,
      "annular": 6659,
      "##rofen": 6660,
      "curvilinear": 6661,
      "fresh": 6662,
      "##operitoneum": 6663,
      "jaundice": 6664,
      "Achilles": 6665,
      "4x4": 6666,
      "C2": 6667,
      "Nasal": 6668,
      "Tob": 6669,
      "Xer": 6670,
      "land": 6671,
      "push": 6672,
      "##mother": 6673,
      "##hetic": 6674,
      "##osite": 6675,
      "reached": 6676,
      "##lyc": 6677,
      "ongoing": 6678,
      "##agm": 6679,
      "##aginous": 6680,
      "extent": 6681,
      "##arget": 6682,
      "angina": 6683,
      "radiograph": 6684,
      "OPERATIONS": 6685,
      "Plantar": 6686,
      "##bril": 6687,
      "##ystagm": 6688,
      "mobile": 6689,
      "Removal": 6690,
      "orthopedic": 6691,
      "evacuation": 6692,
      "saturations": 6693,
      "##fortunately": 6694,
      "hydroneph": 6695,
      "BLE": 6696,
      "Ears": 6697,
      "MR": 6698,
      "PATIENT": 6699,
      "Urine": 6700,
      "cosmetic": 6701,
      "kind": 6702,
      "name": 6703,
      "sick": 6704,
      "trace": 6705,
      "##OL": 6706,
      "##ye": 6707,
      "##cular": 6708,
      "##leral": 6709,
      "##IV": 6710,
      "tow": 6711,
      "##ecal": 6712,
      "##throid": 6713,
      "spoke": 6714,
      "scleral": 6715,
      "caries": 6716,
      "ends": 6717,
      "##athyroid": 6718,
      "redness": 6719,
      "##medullary": 6720,
      "Suite": 6721,
      "factor": 6722,
      "experiencing": 6723,
      "fiberoptic": 6724,
      "Synthroid": 6725,
      "pursestring": 6726,
      "##lycerin": 6727,
      "urgency": 6728,
      "orifice": 6729,
      "ARTERY": 6730,
      "49": 6731,
      "DRU": 6732,
      "Lower": 6733,
      "Romb": 6734,
      "S3": 6735,
      "UI": 6736,
      "buccal": 6737,
      "ec": 6738,
      "numerous": 6739,
      "pse": 6740,
      "##eal": 6741,
      "##gic": 6742,
      "##DL": 6743,
      "##HC": 6744,
      "disp": 6745,
      "##ATIC": 6746,
      "incor": 6747,
      "remains": 6748,
      "##neys": 6749,
      "acrom": 6750,
      "##ologous": 6751,
      "110": 6752,
      "effusions": 6753,
      "depressed": 6754,
      "Placement": 6755,
      "##othelioma": 6756,
      "periods": 6757,
      "##otton": 6758,
      "recommendation": 6759,
      "differential": 6760,
      "talked": 6761,
      "pancreatic": 6762,
      "spray": 6763,
      "reinfor": 6764,
      "threaded": 6765,
      "##responsive": 6766,
      "Xeroform": 6767,
      "hydronephrosis": 6768,
      "towel": 6769,
      "Romberg": 6770,
      "UIHC": 6771,
      "Tons": 6772,
      "bid": 6773,
      "gain": 6774,
      "target": 6775,
      "##oz": 6776,
      "##uity": 6777,
      "##bid": 6778,
      "##LEM": 6779,
      "##erly": 6780,
      "##acia": 6781,
      "##lym": 6782,
      "##utic": 6783,
      "beyond": 6784,
      "conc": 6785,
      "always": 6786,
      "syring": 6787,
      "subscapular": 6788,
      "##ondral": 6789,
      "core": 6790,
      "wheel": 6791,
      "Atrial": 6792,
      "needles": 6793,
      "dense": 6794,
      "paran": 6795,
      "longstanding": 6796,
      "template": 6797,
      "External": 6798,
      "160": 6799,
      "looks": 6800,
      "labs": 6801,
      "resulting": 6802,
      "##roglycerin": 6803,
      "flush": 6804,
      "##aze": 6805,
      "counter": 6806,
      "limbus": 6807,
      "##foram": 6808,
      "calories": 6809,
      "Urinalysis": 6810,
      "fasting": 6811,
      "exsanguinated": 6812,
      "lavage": 6813,
      "Moderate": 6814,
      "atelectasis": 6815,
      "IMM": 6816,
      "Last": 6817,
      "NO": 6818,
      "Pneum": 6819,
      "Rectal": 6820,
      "RIGHT": 6821,
      "lift": 6822,
      "sus": 6823,
      "wet": 6824,
      "##kal": 6825,
      "##uous": 6826,
      "##urethral": 6827,
      "prognosis": 6828,
      "perit": 6829,
      "spasm": 6830,
      "hemod": 6831,
      "output": 6832,
      "endoscopic": 6833,
      "postoperatively": 6834,
      "goal": 6835,
      "reduce": 6836,
      "ESR": 6837,
      "circumcision": 6838,
      "Prot": 6839,
      "kidneys": 6840,
      "##armonic": 6841,
      "borderline": 6842,
      "CPAP": 6843,
      "Overall": 6844,
      "Cystoscopy": 6845,
      "independent": 6846,
      "gravida": 6847,
      "deltoid": 6848,
      "Herniated": 6849,
      "dye": 6850,
      "mask": 6851,
      "rol": 6852,
      "tired": 6853,
      "##va": 6854,
      "##acity": 6855,
      "##ellum": 6856,
      "incomp": 6857,
      "PROB": 6858,
      "##hesias": 6859,
      "##abial": 6860,
      "sterilization": 6861,
      "regimen": 6862,
      "opin": 6863,
      "##ITY": 6864,
      "##ITH": 6865,
      "distance": 6866,
      "confusion": 6867,
      "special": 6868,
      "functioning": 6869,
      "Abnormal": 6870,
      "sugars": 6871,
      "orientation": 6872,
      "infiltrate": 6873,
      "##ollen": 6874,
      "withdraw": 6875,
      "purp": 6876,
      "##contrast": 6877,
      "crystall": 6878,
      "albumin": 6879,
      "Cataract": 6880,
      "morphine": 6881,
      "Breast": 6882,
      "antegrade": 6883,
      "PROBLEM": 6884,
      "+,": 6885,
      "Acc": 6886,
      "Cob": 6887,
      "T8": 6888,
      "##tosis": 6889,
      "##gt": 6890,
      "##UET": 6891,
      "##orous": 6892,
      "##itated": 6893,
      "reins": 6894,
      "condu": 6895,
      "##estion": 6896,
      "sheet": 6897,
      "sprain": 6898,
      "##URNIQ": 6899,
      "overnight": 6900,
      "Webril": 6901,
      "2001": 6902,
      "visible": 6903,
      "gram": 6904,
      "glaucoma": 6905,
      "##exy": 6906,
      "radiating": 6907,
      "localization": 6908,
      "fullness": 6909,
      "##roscopy": 6910,
      "##ppropri": 6911,
      "necrotic": 6912,
      "prominences": 6913,
      "metastasis": 6914,
      "TOURNIQ": 6915,
      "conjunctivae": 6916,
      "While": 6917,
      "grandmother": 6918,
      "taper": 6919,
      "squamous": 6920,
      "contractions": 6921,
      "Bleeding": 6922,
      "protrusion": 6923,
      "DRUG": 6924,
      "IMMUN": 6925,
      "TOURNIQUET": 6926,
      "89": 6927,
      "CR": 6928,
      "Olym": 6929,
      "WITH": 6930,
      "average": 6931,
      "gag": 6932,
      "hig": 6933,
      "hop": 6934,
      "let": 6935,
      "rati": 6936,
      "##point": 6937,
      "##yph": 6938,
      "inverted": 6939,
      "##cter": 6940,
      "##osu": 6941,
      "##osure": 6942,
      "##elitis": 6943,
      "##openia": 6944,
      "##chair": 6945,
      "introduc": 6946,
      "##ERV": 6947,
      "Throat": 6948,
      "##ENTAL": 6949,
      "positioning": 6950,
      "colli": 6951,
      "muscular": 6952,
      "testes": 6953,
      "swollen": 6954,
      "HEAD": 6955,
      "drains": 6956,
      "cover": 6957,
      "tumors": 6958,
      "sleeping": 6959,
      "Hemat": 6960,
      "allergy": 6961,
      "vertigo": 6962,
      "pedal": 6963,
      "entirety": 6964,
      "performing": 6965,
      "pacing": 6966,
      "ruptured": 6967,
      "watch": 6968,
      "##REAT": 6969,
      "migraine": 6970,
      "Psychiatric": 6971,
      "##rehensive": 6972,
      "mediastinal": 6973,
      "##phincter": 6974,
      "##iropractic": 6975,
      "ambulation": 6976,
      "September": 6977,
      "##romalacia": 6978,
      "Olympus": 6979,
      "Dys": 6980,
      "Fund": 6981,
      "Has": 6982,
      "Past": 6983,
      "T3": 6984,
      "cotton": 6985,
      "wis": 6986,
      "##ier": 6987,
      "##iph": 6988,
      "##vula": 6989,
      "inner": 6990,
      "##ulations": 6991,
      "seg": 6992,
      "clav": 6993,
      "##ivan": 6994,
      "##omyopathy": 6995,
      "##agic": 6996,
      "endplate": 6997,
      "elements": 6998,
      "Anemia": 6999,
      "becom": 7000,
      "uterosacral": 7001,
      "##ancing": 7002,
      "centimeter": 7003,
      "March": 7004,
      "ulceration": 7005,
      "##periosteal": 7006,
      "hepatic": 7007,
      "reading": 7008,
      "questionable": 7009,
      "sclerae": 7010,
      "calcifications": 7011,
      "tented": 7012,
      "##psychological": 7013,
      "incorpor": 7014,
      "syringe": 7015,
      "83": 7016,
      "Cap": 7017,
      "KN": 7018,
      "RCA": 7019,
      "Tr": 7020,
      "bimanual": 7021,
      "cocaine": 7022,
      "ict": 7023,
      "pyl": 7024,
      "tell": 7025,
      "wear": 7026,
      "wrap": 7027,
      "##ipt": 7028,
      "##te": 7029,
      "##isol": 7030,
      "##ional": 7031,
      "##osal": 7032,
      "##elastic": 7033,
      "reev": 7034,
      "##idered": 7035,
      "##ampl": 7036,
      "##chlor": 7037,
      "chief": 7038,
      "##nthes": 7039,
      "ended": 7040,
      "smear": 7041,
      "amn": 7042,
      "giving": 7043,
      "smaller": 7044,
      "supras": 7045,
      "tolerating": 7046,
      "##coelastic": 7047,
      "partner": 7048,
      "screen": 7049,
      "expected": 7050,
      "coord": 7051,
      "protection": 7052,
      "commin": 7053,
      "thickened": 7054,
      "esophagitis": 7055,
      "infarct": 7056,
      "##pecific": 7057,
      "driving": 7058,
      "calorie": 7059,
      "leaf": 7060,
      "Synthes": 7061,
      "ganglion": 7062,
      "source": 7063,
      "foreskin": 7064,
      "cancellous": 7065,
      "Aortic": 7066,
      "Cong": 7067,
      "Circ": 7068,
      "Cereb": 7069,
      "PP": 7070,
      "Palp": 7071,
      "Sim": 7072,
      "house": 7073,
      "sometimes": 7074,
      "##DR": 7075,
      "##erol": 7076,
      "##asic": 7077,
      "##rovascular": 7078,
      "exch": 7079,
      "exception": 7080,
      "##ORT": 7081,
      "arrhythm": 7082,
      "##ives": 7083,
      "##omyelitis": 7084,
      "cornea": 7085,
      "Nex": 7086,
      "injured": 7087,
      "radicular": 7088,
      "aspects": 7089,
      "PERR": 7090,
      "restart": 7091,
      "Bladder": 7092,
      "bedside": 7093,
      "allowing": 7094,
      "bruising": 7095,
      "Endoc": 7096,
      "conjunctival": 7097,
      "drinking": 7098,
      "pancreas": 7099,
      "reasonable": 7100,
      "##ANCE": 7101,
      "hallucis": 7102,
      "Apg": 7103,
      "regards": 7104,
      "):,": 7105,
      "counseling": 7106,
      "Dermab": 7107,
      "atheroscler": 7108,
      "##ppropriate": 7109,
      "47": 7110,
      "6h": 7111,
      "Bar": 7112,
      "Most": 7113,
      "Syst": 7114,
      "Selding": 7115,
      "auricular": 7116,
      "lines": 7117,
      "pick": 7118,
      "trap": 7119,
      "##yg": 7120,
      "##bup": 7121,
      "##asive": 7122,
      "toward": 7123,
      "plug": 7124,
      "##oves": 7125,
      "parenchym": 7126,
      "myring": 7127,
      "##thmoid": 7128,
      "FINAL": 7129,
      "CONCL": 7130,
      "prosthesis": 7131,
      "Hyd": 7132,
      "packs": 7133,
      "decompressed": 7134,
      "trim": 7135,
      "hemostats": 7136,
      "mobility": 7137,
      "##rotomy": 7138,
      "foods": 7139,
      "##anguage": 7140,
      "circumferential": 7141,
      "turbinates": 7142,
      "perineum": 7143,
      "neuroma": 7144,
      "petech": 7145,
      "bundle": 7146,
      "diminished": 7147,
      "LYMPHATIC": 7148,
      "Grossly": 7149,
      "malleolus": 7150,
      "Trachea": 7151,
      "Dermabond": 7152,
      "Seldinger": 7153,
      "##buprofen": 7154,
      "CONCLUSION": 7155,
      "800": 7156,
      "BUE": 7157,
      "Mouth": 7158,
      "TIA": 7159,
      "bo": 7160,
      "brady": 7161,
      "sphincter": 7162,
      "tam": 7163,
      "tack": 7164,
      "##CD": 7165,
      "##KS": 7166,
      "##ulator": 7167,
      "chair": 7168,
      "wean": 7169,
      "clon": 7170,
      "closing": 7171,
      "transvers": 7172,
      "canth": 7173,
      "pulley": 7174,
      "steroids": 7175,
      "##ergy": 7176,
      "##undant": 7177,
      "metoprolol": 7178,
      "emph": 7179,
      "employed": 7180,
      "occluded": 7181,
      "cardiomyopathy": 7182,
      "sinusitis": 7183,
      "cartilaginous": 7184,
      "12345": 7185,
      "rehabilitation": 7186,
      "Fluor": 7187,
      "supraclavicular": 7188,
      "ellipt": 7189,
      "ectopic": 7190,
      "##foraminal": 7191,
      "hemodialysis": 7192,
      "ratio": 7193,
      "Bronch": 7194,
      "Fib": 7195,
      "Lex": 7196,
      "MA": 7197,
      "Nons": 7198,
      "Occ": 7199,
      "bott": 7200,
      "hot": 7201,
      "lysis": 7202,
      "pound": 7203,
      "pubic": 7204,
      "rare": 7205,
      "traumatic": 7206,
      "##oactive": 7207,
      "##IP": 7208,
      "thecal": 7209,
      "##orosis": 7210,
      "##osity": 7211,
      "ability": 7212,
      "selected": 7213,
      "##lderly": 7214,
      "shock": 7215,
      "spent": 7216,
      "class": 7217,
      "##artos": 7218,
      "sublux": 7219,
      "hemisp": 7220,
      "considered": 7221,
      "retinal": 7222,
      "intrauterine": 7223,
      "relations": 7224,
      "achieve": 7225,
      "terminated": 7226,
      "##azine": 7227,
      "stabil": 7228,
      "peak": 7229,
      "keeping": 7230,
      "entering": 7231,
      "determine": 7232,
      "malignant": 7233,
      "##omnia": 7234,
      "HEMAT": 7235,
      "##PRET": 7236,
      "INTERPRET": 7237,
      "##olysis": 7238,
      "bicarbonate": 7239,
      "##roponin": 7240,
      "suspect": 7241,
      "Deg": 7242,
      "FO": 7243,
      "Kling": 7244,
      "Nose": 7245,
      "OU": 7246,
      "Thyroid": 7247,
      "Util": 7248,
      "dated": 7249,
      "ever": 7250,
      "ling": 7251,
      "nystagm": 7252,
      "##pin": 7253,
      "##auricular": 7254,
      "##but": 7255,
      "##focal": 7256,
      "##ites": 7257,
      "##acy": 7258,
      "##idym": 7259,
      "##oli": 7260,
      "play": 7261,
      "##ENS": 7262,
      "unco": 7263,
      "interview": 7264,
      "102": 7265,
      "##rolled": 7266,
      "musculature": 7267,
      "##arseness": 7268,
      "Exc": 7269,
      "##henoid": 7270,
      "##TRAST": 7271,
      "severely": 7272,
      "Children": 7273,
      "CONTRAST": 7274,
      "smokes": 7275,
      "##oplite": 7276,
      "slowing": 7277,
      "cream": 7278,
      "poorly": 7279,
      "##ocytosis": 7280,
      "CNS": 7281,
      "causes": 7282,
      "topical": 7283,
      "communic": 7284,
      "Penrose": 7285,
      "Initial": 7286,
      "retinaculum": 7287,
      "opinion": 7288,
      "nystagmus": 7289,
      "AF": 7290,
      "Sch": 7291,
      "Warm": 7292,
      "density": 7293,
      "sess": 7294,
      "vasc": 7295,
      "##land": 7296,
      "##atur": 7297,
      "notable": 7298,
      "spacer": 7299,
      "hemip": 7300,
      "104": 7301,
      "twist": 7302,
      "INTR": 7303,
      "import": 7304,
      "rise": 7305,
      "shoulders": 7306,
      "##arpal": 7307,
      "##rology": 7308,
      "freely": 7309,
      "axilla": 7310,
      "degeneration": 7311,
      "Pratt": 7312,
      "trocars": 7313,
      "lacerations": 7314,
      "predominant": 7315,
      "snare": 7316,
      "skilled": 7317,
      "autologous": 7318,
      "ventriculogram": 7319,
      "independ": 7320,
      "ideation": 7321,
      "delayed": 7322,
      "##razole": 7323,
      "rheumatoid": 7324,
      "claim": 7325,
      "amputation": 7326,
      "nasolabial": 7327,
      "lightheadedness": 7328,
      "Esophagogastroduodenoscopy": 7329,
      "paresthesias": 7330,
      "+.": 7331,
      "Frid": 7332,
      "GIA": 7333,
      "NOS": 7334,
      "burr": 7335,
      "ethmoid": 7336,
      "lin": 7337,
      "miss": 7338,
      "ptosis": 7339,
      "##eot": 7340,
      "##noid": 7341,
      "##tes": 7342,
      "##PE": 7343,
      "##enail": 7344,
      "##oster": 7345,
      "##astoma": 7346,
      "Health": 7347,
      "intractable": 7348,
      "##ants": 7349,
      "Thank": 7350,
      "##OCRINE": 7351,
      "unresponsive": 7352,
      "##ertight": 7353,
      "Atraumatic": 7354,
      "distur": 7355,
      "lobes": 7356,
      "Unable": 7357,
      "hypog": 7358,
      "members": 7359,
      "grasper": 7360,
      "thinks": 7361,
      "shaver": 7362,
      "shaved": 7363,
      "nephrectomy": 7364,
      "arteriovenous": 7365,
      "watertight": 7366,
      "Hypothyroidism": 7367,
      "papillary": 7368,
      "Urinary": 7369,
      "Initially": 7370,
      "tubercle": 7371,
      "Distal": 7372,
      "crackles": 7373,
      "Several": 7374,
      "ENDOCRINE": 7375,
      "attenuation": 7376,
      "Service": 7377,
      "accompanied": 7378,
      "Demerol": 7379,
      "compromise": 7380,
      "4x4s": 7381,
      "Degener": 7382,
      "##pinatus": 7383,
      "Friday": 7384,
      "##eotactic": 7385,
      "EY": 7386,
      "Ech": 7387,
      "Phen": 7388,
      "Top": 7389,
      "TREAT": 7390,
      "big": 7391,
      "kyph": 7392,
      "language": 7393,
      "wearing": 7394,
      "##right": 7395,
      "##eutic": 7396,
      "##O2": 7397,
      "##after": 7398,
      "##ILL": 7399,
      "##atellar": 7400,
      "##rostomy": 7401,
      "##uses": 7402,
      "##ums": 7403,
      "##ressing": 7404,
      "arran": 7405,
      "leave": 7406,
      "##abs": 7407,
      "interphal": 7408,
      "##erted": 7409,
      "##obl": 7410,
      "meatus": 7411,
      "ligature": 7412,
      "parathyroid": 7413,
      "pleura": 7414,
      "Chole": 7415,
      "pneumothorax": 7416,
      "##roscopic": 7417,
      "Medial": 7418,
      "##etharg": 7419,
      "penet": 7420,
      "hemorrhagic": 7421,
      "assessed": 7422,
      "##timately": 7423,
      "looking": 7424,
      "Diagnostic": 7425,
      "retroperitoneal": 7426,
      "Enl": 7427,
      "product": 7428,
      "##OWN": 7429,
      "bursa": 7430,
      "Judkins": 7431,
      "Deferred": 7432,
      "Needle": 7433,
      "Percocet": 7434,
      "subscapularis": 7435,
      "INTRA": 7436,
      "EAR": 7437,
      "GER": 7438,
      "Mental": 7439,
      "Poly": 7440,
      "Tod": 7441,
      "Tympanic": 7442,
      "poplite": 7443,
      "##noon": 7444,
      "##ucop": 7445,
      "##app": 7446,
      "##bar": 7447,
      "##GRA": 7448,
      "##hel": 7449,
      "##urney": 7450,
      "station": 7451,
      "stents": 7452,
      "##imens": 7453,
      "##ocher": 7454,
      "intensity": 7455,
      "art": 7456,
      "arrest": 7457,
      "death": 7458,
      "scars": 7459,
      "containing": 7460,
      "##copal": 7461,
      "consum": 7462,
      "##yself": 7463,
      "Ativan": 7464,
      "decreasing": 7465,
      "##achnoid": 7466,
      "antrum": 7467,
      "application": 7468,
      "urinalysis": 7469,
      "generally": 7470,
      "multivitamin": 7471,
      "noncontributory": 7472,
      "depth": 7473,
      "specifically": 7474,
      "hypot": 7475,
      "serum": 7476,
      "Cardiology": 7477,
      "synovitis": 7478,
      "bones": 7479,
      "gastroenter": 7480,
      "RECTAL": 7481,
      "autograft": 7482,
      "PMI": 7483,
      "##orbable": 7484,
      "Disease": 7485,
      "Intraoperative": 7486,
      "fibroids": 7487,
      "sulf": 7488,
      "Babinski": 7489,
      "Bactrim": 7490,
      "uncovertebral": 7491,
      "TREATMENT": 7492,
      "GERD": 7493,
      "Today": 7494,
      "Copious": 7495,
      "Calc": 7496,
      "OUT": 7497,
      "Sl": 7498,
      "Second": 7499,
      "Will": 7500,
      "biliary": 7501,
      "elderly": 7502,
      "lb": 7503,
      "som": 7504,
      "##ten": 7505,
      "##vated": 7506,
      "##MI": 7507,
      "##requ": 7508,
      "##ics": 7509,
      "##illectomy": 7510,
      "strain": 7511,
      "intensive": 7512,
      "contribut": 7513,
      "##othiaz": 7514,
      "energy": 7515,
      "whole": 7516,
      "colitis": 7517,
      "drapes": 7518,
      "##ypical": 7519,
      "colonoscope": 7520,
      "accur": 7521,
      "breasts": 7522,
      "prostat": 7523,
      "groups": 7524,
      "forehead": 7525,
      "recorded": 7526,
      "tightness": 7527,
      "irregularities": 7528,
      "pieces": 7529,
      "objects": 7530,
      "arrival": 7531,
      "paracentesis": 7532,
      "introducer": 7533,
      "##chlorothiaz": 7534,
      "elliptical": 7535,
      "##chlorothiazide": 7536,
      "Fac": 7537,
      "MENTAL": 7538,
      "Sol": 7539,
      "Wound": 7540,
      "dome": 7541,
      "gir": 7542,
      "iod": 7543,
      "sample": 7544,
      "sense": 7545,
      "##pat": 7546,
      "##vis": 7547,
      "##attered": 7548,
      "anicteric": 7549,
      "toenail": 7550,
      "##osum": 7551,
      "##aches": 7552,
      "concl": 7553,
      "plates": 7554,
      "##ocin": 7555,
      "##ogenic": 7556,
      "recip": 7557,
      "preserve": 7558,
      "inside": 7559,
      "follows": 7560,
      "##omax": 7561,
      "parap": 7562,
      "heartburn": 7563,
      "angled": 7564,
      "continuing": 7565,
      "consisted": 7566,
      "gastritis": 7567,
      "locally": 7568,
      "cannulate": 7569,
      "axis": 7570,
      "##ofemoral": 7571,
      "Monitor": 7572,
      "implants": 7573,
      "palm": 7574,
      "lips": 7575,
      "mesothelioma": 7576,
      "cholelithiasis": 7577,
      "##enteric": 7578,
      "tenosyn": 7579,
      "Preoperative": 7580,
      "skills": 7581,
      "mammogram": 7582,
      "heparinized": 7583,
      "circumferentially": 7584,
      "Muscle": 7585,
      "happy": 7586,
      "INTERPRETATION": 7587,
      "EYES": 7588,
      "73": 7589,
      "Pres": 7590,
      "ROS": 7591,
      "Rob": 7592,
      "UA": 7593,
      "data": 7594,
      "ml": 7595,
      "pub": 7596,
      "sib": 7597,
      "##ivers": 7598,
      "##atically": 7599,
      "##inent": 7600,
      "anterolateral": 7601,
      "##ores": 7602,
      "##icide": 7603,
      "##urance": 7604,
      "atrophic": 7605,
      "##abdom": 7606,
      "acuity": 7607,
      "afternoon": 7608,
      "meet": 7609,
      "draining": 7610,
      "colonic": 7611,
      "lobectomy": 7612,
      "please": 7613,
      "invasion": 7614,
      "stenting": 7615,
      "helped": 7616,
      "Hyperlipidemia": 7617,
      "managed": 7618,
      "Endo": 7619,
      "##retation": 7620,
      "segmental": 7621,
      "Postoperative": 7622,
      "wants": 7623,
      "successfully": 7624,
      "sexual": 7625,
      "interpre": 7626,
      "barium": 7627,
      "buttock": 7628,
      "unsuccessful": 7629,
      "Operating": 7630,
      "education": 7631,
      "staple": 7632,
      "individual": 7633,
      "instituted": 7634,
      "acetabulum": 7635,
      "Conjunctivae": 7636,
      "withdrawal": 7637,
      "CRP": 7638,
      "KNOWN": 7639,
      "PERRLA": 7640,
      "Degenerative": 7641,
      "##abdominal": 7642,
      "Appropriate": 7643,
      "Kocher": 7644,
      "UP": 7645,
      "URINE": 7646,
      "duration": 7647,
      "draw": 7648,
      "hur": 7649,
      "nutrition": 7650,
      "pop": 7651,
      "rang": 7652,
      "uvula": 7653,
      "vib": 7654,
      "x4": 7655,
      "##ej": 7656,
      "##arently": 7657,
      "inability": 7658,
      "often": 7659,
      "spur": 7660,
      "unus": 7661,
      "##ffect": 7662,
      "outlined": 7663,
      "##ucing": 7664,
      "##uclear": 7665,
      "colostomy": 7666,
      "inject": 7667,
      "fluent": 7668,
      "supra": 7669,
      "fibers": 7670,
      "##ancomycin": 7671,
      "Closure": 7672,
      "##iculations": 7673,
      "Recomm": 7674,
      "resolution": 7675,
      "ductus": 7676,
      "##rete": 7677,
      "Postanesthesia": 7678,
      "strokes": 7679,
      "snack": 7680,
      "snoring": 7681,
      "nonspecific": 7682,
      "Append": 7683,
      "Apparently": 7684,
      "immob": 7685,
      "leakage": 7686,
      "hoarseness": 7687,
      "trochan": 7688,
      "eventually": 7689,
      "sexually": 7690,
      "nitroglycerin": 7691,
      "adherent": 7692,
      "Tobacco": 7693,
      "ecchym": 7694,
      "higher": 7695,
      "clavicle": 7696,
      "relationsh": 7697,
      "girl": 7698,
      "##ejun": 7699,
      "?,": 7700,
      "Ele": 7701,
      "Ig": 7702,
      "JP": 7703,
      "Part": 7704,
      "Upper": 7705,
      "aug": 7706,
      "myself": 7707,
      "sle": 7708,
      "trac": 7709,
      "##lo": 7710,
      "##flow": 7711,
      "##var": 7712,
      "##heres": 7713,
      "##asone": 7714,
      "##otons": 7715,
      "disability": 7716,
      "##reshold": 7717,
      "ablation": 7718,
      "adult": 7719,
      "##plasia": 7720,
      "##rip": 7721,
      "chord": 7722,
      "subperiosteal": 7723,
      "perfor": 7724,
      "##ourn": 7725,
      "##orsion": 7726,
      "bloody": 7727,
      "empt": 7728,
      "morbid": 7729,
      "initiated": 7730,
      "Proton": 7731,
      "##iatrist": 7732,
      "group": 7733,
      "falls": 7734,
      "concerning": 7735,
      "experience": 7736,
      "Previous": 7737,
      "drip": 7738,
      "retroflex": 7739,
      "listed": 7740,
      "##stitial": 7741,
      "chondromalacia": 7742,
      "##IZATIONS": 7743,
      "Prostate": 7744,
      "pseud": 7745,
      "reinserted": 7746,
      "Utilizing": 7747,
      "hemiparesis": 7748,
      "unusual": 7749,
      "Lov": 7750,
      "PDA": 7751,
      "TA": 7752,
      "Tex": 7753,
      "larynx": 7754,
      "mast": 7755,
      "outer": 7756,
      "pall": 7757,
      "##iologic": 7758,
      "##eased": 7759,
      "##action": 7760,
      "##atures": 7761,
      "##cting": 7762,
      "##omotor": 7763,
      "##adron": 7764,
      "stoc": 7765,
      "##ectomies": 7766,
      "##ONE": 7767,
      "accept": 7768,
      "##kinet": 7769,
      "secure": 7770,
      "metal": 7771,
      "fasciculations": 7772,
      "##eget": 7773,
      "intramedullary": 7774,
      "worker": 7775,
      "urination": 7776,
      "passing": 7777,
      "Aden": 7778,
      "hypo": 7779,
      "Closed": 7780,
      "Decadron": 7781,
      "exercises": 7782,
      "Hearing": 7783,
      "schedule": 7784,
      "undergoing": 7785,
      "Imp": 7786,
      "cholangi": 7787,
      "capacity": 7788,
      "triple": 7789,
      "arthroscopy": 7790,
      "opposite": 7791,
      "ventilator": 7792,
      "Norv": 7793,
      "mechanical": 7794,
      "viral": 7795,
      "voiding": 7796,
      "##iphoid": 7797,
      "conclusion": 7798,
      "stockinet": 7799,
      "Air": 7800,
      "Harmonic": 7801,
      "MOT": 7802,
      "T9": 7803,
      "Tourn": 7804,
      "gaze": 7805,
      "letharg": 7806,
      "option": 7807,
      "oophorectomy": 7808,
      "##oqu": 7809,
      "##itour": 7810,
      "threshold": 7811,
      "##uli": 7812,
      "##umor": 7813,
      "##umeral": 7814,
      "displac": 7815,
      "seal": 7816,
      "##oneu": 7817,
      "stereotactic": 7818,
      "##ardium": 7819,
      "hypercholesterolemia": 7820,
      "REF": 7821,
      "fractured": 7822,
      "guard": 7823,
      "flexure": 7824,
      "planes": 7825,
      "##ething": 7826,
      "entirely": 7827,
      "Spine": 7828,
      "palsy": 7829,
      "##rodissection": 7830,
      "cerebellar": 7831,
      "epididym": 7832,
      "crep": 7833,
      "##marks": 7834,
      "CAD": 7835,
      "believes": 7836,
      "suffered": 7837,
      "retractions": 7838,
      "Additionally": 7839,
      "myelopathy": 7840,
      "Electroc": 7841,
      "Liver": 7842,
      "landmarks": 7843,
      "wheelchair": 7844,
      "exchange": 7845,
      "##oliosis": 7846,
      "Tourniquet": 7847,
      "##itourinary": 7848,
      "Cord": 7849,
      "Fetal": 7850,
      "Lig": 7851,
      "Nontender": 7852,
      "RUE": 7853,
      "veget": 7854,
      "##iel": 7855,
      "##OUT": 7856,
      "##con": 7857,
      "##aptic": 7858,
      "##lan": 7859,
      "##orph": 7860,
      "##arin": 7861,
      "##ica": 7862,
      "##ematous": 7863,
      "asleep": 7864,
      "##ocecal": 7865,
      "##physis": 7866,
      "##antin": 7867,
      "##ival": 7868,
      "subgl": 7869,
      "compressive": 7870,
      "101": 7871,
      "reposition": 7872,
      "symphysis": 7873,
      "metabolic": 7874,
      "desired": 7875,
      "indications": 7876,
      "Straight": 7877,
      "occur": 7878,
      "scans": 7879,
      "dorsum": 7880,
      "180": 7881,
      "CHF": 7882,
      "Adaptic": 7883,
      "##OLOGY": 7884,
      "tele": 7885,
      "indicating": 7886,
      "BP1": 7887,
      "crani": 7888,
      "Colace": 7889,
      "ileocecal": 7890,
      "mandibular": 7891,
      "adnexa": 7892,
      "deviated": 7893,
      "foramina": 7894,
      "Catheter": 7895,
      "neutral": 7896,
      "Finally": 7897,
      "##hylene": 7898,
      "critical": 7899,
      "dislocation": 7900,
      "machine": 7901,
      "##lycemia": 7902,
      "##kaline": 7903,
      "disturb": 7904,
      "interphalangeal": 7905,
      "EARS": 7906,
      "popliteal": 7907,
      "##ucoper": 7908,
      "Norvasc": 7909,
      "Ce": 7910,
      "EF": 7911,
      "Glucose": 7912,
      "Och": 7913,
      "Toprol": 7914,
      "UTI": 7915,
      "Vit": 7916,
      "mE": 7917,
      "pup": 7918,
      "tympan": 7919,
      "##ohy": 7920,
      "##eed": 7921,
      "##IF": 7922,
      "##father": 7923,
      "##ithel": 7924,
      "offer": 7925,
      "##otrex": 7926,
      "##veolar": 7927,
      "##ading": 7928,
      "atax": 7929,
      "suicide": 7930,
      "uses": 7931,
      "abras": 7932,
      "shield": 7933,
      "infund": 7934,
      "evoked": 7935,
      "##apro": 7936,
      "interested": 7937,
      "presenting": 7938,
      "MEDICATION": 7939,
      "postop": 7940,
      "##upus": 7941,
      "fired": 7942,
      "gray": 7943,
      "weightbearing": 7944,
      "recovered": 7945,
      "osteotome": 7946,
      "cuts": 7947,
      "arthrosis": 7948,
      "##arpa": 7949,
      "blocker": 7950,
      "pedis": 7951,
      "personal": 7952,
      "Scarpa": 7953,
      "easy": 7954,
      "thrombus": 7955,
      "Noncontrast": 7956,
      "buried": 7957,
      "brothers": 7958,
      "waist": 7959,
      "temporary": 7960,
      "Obes": 7961,
      "vacu": 7962,
      "Omn": 7963,
      "icterus": 7964,
      "Circum": 7965,
      "trapez": 7966,
      "trimmed": 7967,
      "independently": 7968,
      "INTRAOPERATIVE": 7969,
      "something": 7970,
      "chordee": 7971,
      "MOTOR": 7972,
      "Ochs": 7973,
      "mEq": 7974,
      "##otrexate": 7975,
      "Cent": 7976,
      "Dex": 7977,
      "From": 7978,
      "GO": 7979,
      "Long": 7980,
      "Large": 7981,
      "Pred": 7982,
      "horn": 7983,
      "lord": 7984,
      "vancomycin": 7985,
      "##oresis": 7986,
      "##isk": 7987,
      "##lytes": 7988,
      "##emed": 7989,
      "##emesis": 7990,
      "##ectious": 7991,
      "exist": 7992,
      "exiting": 7993,
      "conj": 7994,
      "##amp": 7995,
      "##unk": 7996,
      "deemed": 7997,
      "##ipated": 7998,
      "scattered": 7999,
      "##ibility": 8000,
      "computer": 8001,
      "interstitial": 8002,
      "incisional": 8003,
      "105": 8004,
      "##pirations": 8005,
      "model": 8006,
      "electrical": 8007,
      "##urgery": 8008,
      "verteb": 8009,
      "suggestion": 8010,
      "alternative": 8011,
      "Respirations": 8012,
      "bands": 8013,
      "gastrointestinal": 8014,
      "Short": 8015,
      "prolapse": 8016,
      "travel": 8017,
      "arteriosus": 8018,
      "enhancing": 8019,
      "definitive": 8020,
      "neutroph": 8021,
      "concentration": 8022,
      "Shows": 8023,
      "substance": 8024,
      "Assess": 8025,
      "words": 8026,
      "spells": 8027,
      "cricoid": 8028,
      "##omedial": 8029,
      "According": 8030,
      "Apgars": 8031,
      "NOSE": 8032,
      "GOAL": 8033,
      "Feb": 8034,
      "Lymph": 8035,
      "NG": 8036,
      "OB": 8037,
      "bending": 8038,
      "dos": 8039,
      "gone": 8040,
      "ibuprofen": 8041,
      "jud": 8042,
      "##hood": 8043,
      "##haps": 8044,
      "##gias": 8045,
      "##itors": 8046,
      "##omatic": 8047,
      "##eflex": 8048,
      "##orts": 8049,
      "added": 8050,
      "##ICILL": 8051,
      "##quired": 8052,
      "##isthesis": 8053,
      "##ruary": 8054,
      "acne": 8055,
      "insomnia": 8056,
      "admit": 8057,
      "viscoelastic": 8058,
      "##oken": 8059,
      "antever": 8060,
      "swit": 8061,
      "elevate": 8062,
      "goes": 8063,
      "radius": 8064,
      "adenoma": 8065,
      "##lecting": 8066,
      "marking": 8067,
      "equally": 8068,
      "grasp": 8069,
      "Intact": 8070,
      "bases": 8071,
      "insufflation": 8072,
      "Prim": 8073,
      "SPECT": 8074,
      "cortic": 8075,
      "bright": 8076,
      "properly": 8077,
      "circumference": 8078,
      "Intrauterine": 8079,
      "triang": 8080,
      "definite": 8081,
      "Phacoemulsification": 8082,
      "donor": 8083,
      "generator": 8084,
      "vitre": 8085,
      "BACK": 8086,
      "summary": 8087,
      "Protonix": 8088,
      "February": 8089,
      "##ICILLIN": 8090,
      "(-": 8091,
      "Bunion": 8092,
      "Det": 8093,
      "Dup": 8094,
      "Pf": 8095,
      "Prem": 8096,
      "SM": 8097,
      "TUR": 8098,
      "brown": 8099,
      "nice": 8100,
      "tor": 8101,
      "##more": 8102,
      "##py": 8103,
      "##iac": 8104,
      "##EA": 8105,
      "##yc": 8106,
      "##cher": 8107,
      "##gal": 8108,
      "##field": 8109,
      "##hez": 8110,
      "##heim": 8111,
      "##enst": 8112,
      "##enox": 8113,
      "##esc": 8114,
      "##ulg": 8115,
      "##adone": 8116,
      "##olisthesis": 8117,
      "peripher": 8118,
      "##rand": 8119,
      "##ovac": 8120,
      "deployed": 8121,
      "##ibul": 8122,
      "##ands": 8123,
      "intervertebral": 8124,
      "##obia": 8125,
      "insight": 8126,
      "##leton": 8127,
      "expressed": 8128,
      "phone": 8129,
      "##ebr": 8130,
      "plateau": 8131,
      "sheaths": 8132,
      "aponeu": 8133,
      "pneumoperitoneum": 8134,
      "hydroc": 8135,
      "Super": 8136,
      "packing": 8137,
      "speak": 8138,
      "progressed": 8139,
      "Denied": 8140,
      "deformities": 8141,
      "obstructing": 8142,
      "sternum": 8143,
      "meniscal": 8144,
      "ambulate": 8145,
      "adenoidectomy": 8146,
      "Epid": 8147,
      "films": 8148,
      "bunionectomy": 8149,
      "##annenst": 8150,
      "Discuss": 8151,
      "habits": 8152,
      "Uterus": 8153,
      "cardioversion": 8154,
      "Lovenox": 8155,
      "(-)": 8156,
      "Pfannenst": 8157,
      "aponeurosis": 8158,
      "Pfannenstiel": 8159,
      "CK": 8160,
      "Deli": 8161,
      "Fah": 8162,
      "IM": 8163,
      "Lateral": 8164,
      "Mood": 8165,
      "S4": 8166,
      "Tongue": 8167,
      "gurney": 8168,
      "oil": 8169,
      "opt": 8170,
      "tones": 8171,
      "##mitted": 8172,
      "##gut": 8173,
      "##UB": 8174,
      "##heit": 8175,
      "##enb": 8176,
      "##itin": 8177,
      "##ington": 8178,
      "##omat": 8179,
      "##eler": 8180,
      "reverse": 8181,
      "blue": 8182,
      "blind": 8183,
      "##itional": 8184,
      "##aginal": 8185,
      "carina": 8186,
      "retained": 8187,
      "##renheit": 8188,
      "visits": 8189,
      "musculoskeletal": 8190,
      "identifying": 8191,
      "POSTOP": 8192,
      "##ophobia": 8193,
      "indication": 8194,
      "refractory": 8195,
      "advancement": 8196,
      "subcutaneously": 8197,
      "Expl": 8198,
      "passage": 8199,
      "138": 8200,
      "cystoscope": 8201,
      "Blake": 8202,
      "##orrhagia": 8203,
      "##LEX": 8204,
      "lesser": 8205,
      "infiltration": 8206,
      "accessory": 8207,
      "connection": 8208,
      "consideration": 8209,
      "diverticulosis": 8210,
      "nephrostomy": 8211,
      "progression": 8212,
      "foraminotomies": 8213,
      "bacteria": 8214,
      "paralle": 8215,
      "##aphy": 8216,
      "weighs": 8217,
      "Pediatric": 8218,
      "peroneal": 8219,
      "noncompl": 8220,
      "Mucous": 8221,
      "scrubbed": 8222,
      "segments": 8223,
      "reevaluation": 8224,
      "Echocardiogram": 8225,
      "OUTP": 8226,
      "prostatectomy": 8227,
      "Ochsner": 8228,
      "Fahrenheit": 8229,
      "Baby": 8230,
      "Gra": 8231,
      "eust": 8232,
      "fol": 8233,
      "fiss": 8234,
      "tars": 8235,
      "##af": 8236,
      "##born": 8237,
      "##enn": 8238,
      "##icc": 8239,
      "##ana": 8240,
      "##osen": 8241,
      "##oure": 8242,
      "##otrin": 8243,
      "stump": 8244,
      "formed": 8245,
      "##amus": 8246,
      "##ocor": 8247,
      "##phar": 8248,
      "spi": 8249,
      "spong": 8250,
      "##artments": 8251,
      "contusion": 8252,
      "repet": 8253,
      "cath": 8254,
      "##achian": 8255,
      "tolerance": 8256,
      "visualize": 8257,
      "intraarticular": 8258,
      "weekly": 8259,
      "Hemovac": 8260,
      "palmar": 8261,
      "synov": 8262,
      "cerebrovascular": 8263,
      "diamond": 8264,
      "luminal": 8265,
      "connect": 8266,
      "dropped": 8267,
      "ACE": 8268,
      "Neurology": 8269,
      "trigger": 8270,
      "##rehension": 8271,
      "homicidal": 8272,
      "burning": 8273,
      "Reviewed": 8274,
      "glasses": 8275,
      "incomplete": 8276,
      "wishes": 8277,
      "petechia": 8278,
      "tenosynovitis": 8279,
      "relationship": 8280,
      "##hezia": 8281,
      "eustachian": 8282,
      "GYN": 8283,
      "Hunt": 8284,
      "cirr": 8285,
      "fen": 8286,
      "foll": 8287,
      "send": 8288,
      "sampl": 8289,
      "wax": 8290,
      "yet": 8291,
      "##oir": 8292,
      "##EE": 8293,
      "##nitus": 8294,
      "##cus": 8295,
      "##hosis": 8296,
      "##IST": 8297,
      "##xx": 8298,
      "##Med": 8299,
      "##enoh": 8300,
      "inhib": 8301,
      "##esium": 8302,
      "stating": 8303,
      "stick": 8304,
      "incise": 8305,
      "sphenoid": 8306,
      "prett": 8307,
      "reserv": 8308,
      "hemi": 8309,
      "intermedi": 8310,
      "##kinesis": 8311,
      "daytime": 8312,
      "catgut": 8313,
      "##urnal": 8314,
      "ANG": 8315,
      "##LLOW": 8316,
      "##oking": 8317,
      "PREOP": 8318,
      "emesis": 8319,
      "phacoemulsification": 8320,
      "plans": 8321,
      "regularly": 8322,
      "auscult": 8323,
      "helpful": 8324,
      "structural": 8325,
      "Endoscopic": 8326,
      "syncopal": 8327,
      "##ondylar": 8328,
      "necrosis": 8329,
      "crest": 8330,
      "appreciate": 8331,
      "microscopic": 8332,
      "##enolol": 8333,
      "brid": 8334,
      "Clinical": 8335,
      "impaired": 8336,
      "folds": 8337,
      "tonsillectomy": 8338,
      "ribs": 8339,
      "Question": 8340,
      "magnification": 8341,
      "paralysis": 8342,
      "percentile": 8343,
      "enzymes": 8344,
      "##menorrhea": 8345,
      "ECG": 8346,
      "fingerbreadths": 8347,
      "FOLLOW": 8348,
      "Excellent": 8349,
      "displacement": 8350,
      "Huntington": 8351,
      "cirrhosis": 8352,
      "##enohumeral": 8353,
      "pretty": 8354,
      "reservoir": 8355,
      "Amb": 8356,
      "ASA": 8357,
      "Affect": 8358,
      "BN": 8359,
      "HT": 8360,
      "Ma": 8361,
      "Nares": 8362,
      "Out": 8363,
      "TEST": 8364,
      "ham": 8365,
      "lupus": 8366,
      "od": 8367,
      "optic": 8368,
      "une": 8369,
      "##tronic": 8370,
      "##cotic": 8371,
      "##Ci": 8372,
      "##10": 8373,
      "##erance": 8374,
      "##erosity": 8375,
      "##edget": 8376,
      "##atase": 8377,
      "##inence": 8378,
      "##ioned": 8379,
      "##omas": 8380,
      "pledget": 8381,
      "##ocl": 8382,
      "##ococc": 8383,
      "perhaps": 8384,
      "##akes": 8385,
      "remote": 8386,
      "##istic": 8387,
      "##ubital": 8388,
      "upright": 8389,
      "quick": 8390,
      "tuberosity": 8391,
      "attending": 8392,
      "drape": 8393,
      "ultimately": 8394,
      "relative": 8395,
      "hospitalizations": 8396,
      "hematemesis": 8397,
      "flexed": 8398,
      "##oxide": 8399,
      "severity": 8400,
      "Blunt": 8401,
      "bronchial": 8402,
      "Medtronic": 8403,
      "ureteropelvic": 8404,
      "brainstem": 8405,
      "Selective": 8406,
      "equals": 8407,
      "mesent": 8408,
      "mesenteric": 8409,
      "echo": 8410,
      "intravenously": 8411,
      "Surgical": 8412,
      "##ocytopenia": 8413,
      "tightened": 8414,
      "locked": 8415,
      "##giene": 8416,
      "raising": 8417,
      "methotrexate": 8418,
      "ADMIT": 8419,
      "evacuated": 8420,
      "referral": 8421,
      "sooner": 8422,
      "capsulotomy": 8423,
      "phosphatase": 8424,
      "IMMUNIZATIONS": 8425,
      "vacuum": 8426,
      "##ococcus": 8427,
      "Fentanyl": 8428,
      "Hall": 8429,
      "High": 8430,
      "Pit": 8431,
      "Te": 8432,
      "dog": 8433,
      "dual": 8434,
      "jer": 8435,
      "native": 8436,
      "##rd": 8437,
      "##rically": 8438,
      "##ien": 8439,
      "##lings": 8440,
      "##xia": 8441,
      "##UP": 8442,
      "ana": 8443,
      "##orement": 8444,
      "##rep": 8445,
      "inpatient": 8446,
      "##icel": 8447,
      "##acing": 8448,
      "patients": 8449,
      "nothing": 8450,
      "##ineangi": 8451,
      "seat": 8452,
      "adip": 8453,
      "##ignificant": 8454,
      "medic": 8455,
      "##andibular": 8456,
      "hygiene": 8457,
      "aged": 8458,
      "##ardiac": 8459,
      "testicular": 8460,
      "##strual": 8461,
      "excluded": 8462,
      "redundant": 8463,
      "lymphocytes": 8464,
      "brevis": 8465,
      "depend": 8466,
      "regional": 8467,
      "Alb": 8468,
      "marker": 8469,
      "bronchitis": 8470,
      "Procedure": 8471,
      "detected": 8472,
      "Intensive": 8473,
      "structure": 8474,
      "dietary": 8475,
      "basilar": 8476,
      "collapse": 8477,
      "##ottis": 8478,
      "aforement": 8479,
      "ascites": 8480,
      "Disch": 8481,
      "submitted": 8482,
      "irritable": 8483,
      "Gastrointestinal": 8484,
      "relieved": 8485,
      "cramping": 8486,
      "harvested": 8487,
      "premature": 8488,
      "##formin": 8489,
      "reinforced": 8490,
      "contributing": 8491,
      "Recommend": 8492,
      "ataxia": 8493,
      "Dexon": 8494,
      "Pitocin": 8495,
      "aforementioned": 8496,
      "Bard": 8497,
      "Carpal": 8498,
      "Femoral": 8499,
      "Lort": 8500,
      "PEN": 8501,
      "Park": 8502,
      "lax": 8503,
      "ocular": 8504,
      "pir": 8505,
      "puff": 8506,
      "tag": 8507,
      "##ioma": 8508,
      "##ny": 8509,
      "##cology": 8510,
      "##zheim": 8511,
      "##inum": 8512,
      "##any": 8513,
      "##anation": 8514,
      "##idental": 8515,
      "##efully": 8516,
      "##ogene": 8517,
      "scoliosis": 8518,
      "remn": 8519,
      "preop": 8520,
      "resume": 8521,
      "##ondyle": 8522,
      "compartments": 8523,
      "##epam": 8524,
      "discol": 8525,
      "##obronchial": 8526,
      "##ysema": 8527,
      "##airs": 8528,
      "indeed": 8529,
      "cardiologist": 8530,
      "phase": 8531,
      "##CUSS": 8532,
      "132": 8533,
      "137": 8534,
      "confused": 8535,
      "consented": 8536,
      "##oxicillin": 8537,
      "Alzheim": 8538,
      "DISCUSS": 8539,
      "lengt": 8540,
      "hypox": 8541,
      "temporalis": 8542,
      "disorders": 8543,
      "transposition": 8544,
      "pericardium": 8545,
      "Appear": 8546,
      "Complete": 8547,
      "bleeders": 8548,
      "liquids": 8549,
      "##omnol": 8550,
      "epicondyle": 8551,
      "reversed": 8552,
      "dictated": 8553,
      "RHF": 8554,
      "nocturnal": 8555,
      "rolled": 8556,
      "Elevated": 8557,
      "ADMITTING": 8558,
      "Lortab": 8559,
      "piriform": 8560,
      "Alzheimer": 8561,
      "DISCUSSION": 8562,
      "Cro": 8563,
      "Dif": 8564,
      "Dura": 8565,
      "Ten": 8566,
      "bad": 8567,
      "ground": 8568,
      "mCi": 8569,
      "nick": 8570,
      "ooz": 8571,
      "ske": 8572,
      "tie": 8573,
      "vig": 8574,
      "vul": 8575,
      "##patic": 8576,
      "##rush": 8577,
      "##SON": 8578,
      "##hn": 8579,
      "##gement": 8580,
      "##vir": 8581,
      "##VAL": 8582,
      "##hening": 8583,
      "##orin": 8584,
      "##icited": 8585,
      "##rob": 8586,
      "##atile": 8587,
      "##urface": 8588,
      "str": 8589,
      "blad": 8590,
      "debul": 8591,
      "remarkable": 8592,
      "##ruption": 8593,
      "##andom": 8594,
      "colum": 8595,
      "lowered": 8596,
      "manual": 8597,
      "##ulla": 8598,
      "##stead": 8599,
      "glute": 8600,
      "nonp": 8601,
      "advance": 8602,
      "##ammert": 8603,
      "salt": 8604,
      "simp": 8605,
      "Alle": 8606,
      "Aller": 8607,
      "cleft": 8608,
      "Scale": 8609,
      "various": 8610,
      "neuropsychological": 8611,
      "Surgicel": 8612,
      "polypectomy": 8613,
      "brisk": 8614,
      "##amicin": 8615,
      "##ictures": 8616,
      "audible": 8617,
      "annulus": 8618,
      "rhinorrhea": 8619,
      "Radi": 8620,
      "addressed": 8621,
      "requesting": 8622,
      "laryngoscopy": 8623,
      "steel": 8624,
      "therapeutic": 8625,
      "ophthalmic": 8626,
      "vestibular": 8627,
      "focus": 8628,
      "tinnitus": 8629,
      "cardinal": 8630,
      "hemodynamic": 8631,
      "Tonsillectomy": 8632,
      "Electrocautery": 8633,
      "OUTPUT": 8634,
      "skeleton": 8635,
      "Ace": 8636,
      "Cip": 8637,
      "Cry": 8638,
      "El": 8639,
      "FAC": 8640,
      "OM": 8641,
      "Oxygen": 8642,
      "Rule": 8643,
      "green": 8644,
      "om": 8645,
      "woke": 8646,
      "##mic": 8647,
      "##cill": 8648,
      "##UES": 8649,
      "##COP": 8650,
      "##ash": 8651,
      "##itate": 8652,
      "##regn": 8653,
      "reach": 8654,
      "##acid": 8655,
      "##usely": 8656,
      "##utely": 8657,
      "##olid": 8658,
      "expect": 8659,
      "exhib": 8660,
      "plastic": 8661,
      "intol": 8662,
      "##unc": 8663,
      "##unity": 8664,
      "##ript": 8665,
      "##mented": 8666,
      "extracted": 8667,
      "content": 8668,
      "fashioned": 8669,
      "tendin": 8670,
      "##upational": 8671,
      "##ergan": 8672,
      "##structive": 8673,
      "manif": 8674,
      "eminence": 8675,
      "ligamentous": 8676,
      "##untary": 8677,
      "delusions": 8678,
      "totally": 8679,
      "Clar": 8680,
      "Extensive": 8681,
      "sections": 8682,
      "lipid": 8683,
      "THRO": 8684,
      "nervous": 8685,
      "1996": 8686,
      "tibialis": 8687,
      "narcotic": 8688,
      "##ventful": 8689,
      "hematochezia": 8690,
      "Immedi": 8691,
      "safely": 8692,
      "Flomax": 8693,
      "cycles": 8694,
      "mediastinum": 8695,
      "intrins": 8696,
      "Advair": 8697,
      "Palpation": 8698,
      "arrhythmia": 8699,
      "Nexium": 8700,
      "emphysema": 8701,
      "Calcium": 8702,
      "siblings": 8703,
      "slee": 8704,
      "neutrophils": 8705,
      "parallel": 8706,
      "medicines": 8707,
      "PENICILLIN": 8708,
      "THROAT": 8709,
      "Darv": 8710,
      "IMA": 8711,
      "LMA": 8712,
      "Sw": 8713,
      "T4": 8714,
      "UR": 8715,
      "VAC": 8716,
      "Zyr": 8717,
      "lump": 8718,
      "tort": 8719,
      "##tec": 8720,
      "##algia": 8721,
      "##arachnoid": 8722,
      "##rox": 8723,
      "##room": 8724,
      "##imm": 8725,
      "##ethylene": 8726,
      "##ellig": 8727,
      "shown": 8728,
      "spot": 8729,
      "##outs": 8730,
      "##ived": 8731,
      "##ranon": 8732,
      "meds": 8733,
      "##eprazole": 8734,
      "##ricted": 8735,
      "overweight": 8736,
      "transient": 8737,
      "##achment": 8738,
      "desicc": 8739,
      "glenohumeral": 8740,
      "PERSON": 8741,
      "valgus": 8742,
      "Prob": 8743,
      "absence": 8744,
      "serous": 8745,
      "thyroidectomy": 8746,
      "falling": 8747,
      "basically": 8748,
      "1991": 8749,
      "variable": 8750,
      "Ess": 8751,
      "affected": 8752,
      "purch": 8753,
      "granulation": 8754,
      "analges": 8755,
      "cauterization": 8756,
      "moment": 8757,
      "ambulating": 8758,
      "dissector": 8759,
      "rongeurs": 8760,
      "methadone": 8761,
      "condyl": 8762,
      "Symptomatic": 8763,
      "adjusted": 8764,
      "pancreatitis": 8765,
      "globe": 8766,
      "therapist": 8767,
      "milk": 8768,
      "##lecranon": 8769,
      "interpreted": 8770,
      "hypokinesis": 8771,
      "fenest": 8772,
      "Crohn": 8773,
      "Zyrtec": 8774,
      "-,": 8775,
      "3rd": 8776,
      "Motrin": 8777,
      "RV": 8778,
      "SENS": 8779,
      "lear": 8780,
      "pins": 8781,
      "pills": 8782,
      "viol": 8783,
      "##ries": 8784,
      "##iance": 8785,
      "##aut": 8786,
      "##bo": 8787,
      "##brile": 8788,
      "##CP": 8789,
      "##BG": 8790,
      "##hepatic": 8791,
      "wash": 8792,
      "##icted": 8793,
      "##ithrom": 8794,
      "##outer": 8795,
      "##elenb": 8796,
      "reass": 8797,
      "##acaine": 8798,
      "##iage": 8799,
      "congen": 8800,
      "##odar": 8801,
      "##ifact": 8802,
      "##astatin": 8803,
      "nebul": 8804,
      "##ressor": 8805,
      "##endelenb": 8806,
      "##phasic": 8807,
      "cho": 8808,
      "chron": 8809,
      "blurred": 8810,
      "##iventricular": 8811,
      "##rank": 8812,
      "##artum": 8813,
      "##ENTI": 8814,
      "Thus": 8815,
      "extends": 8816,
      "recess": 8817,
      "acoust": 8818,
      "##OCEDURE": 8819,
      "agitation": 8820,
      "##rosyn": 8821,
      "##oidal": 8822,
      "febrile": 8823,
      "midface": 8824,
      "##ocking": 8825,
      "edematous": 8826,
      "actual": 8827,
      "relax": 8828,
      "expand": 8829,
      "osteomyelitis": 8830,
      "weekend": 8831,
      "sliding": 8832,
      "commands": 8833,
      "Medicine": 8834,
      "pathologic": 8835,
      "penicillin": 8836,
      "divor": 8837,
      "hemorrhages": 8838,
      "maximal": 8839,
      "Rehab": 8840,
      "Should": 8841,
      "collar": 8842,
      "awakening": 8843,
      "polypoid": 8844,
      "answer": 8845,
      "intermittently": 8846,
      "Sensation": 8847,
      "communication": 8848,
      "sequentially": 8849,
      "Angio": 8850,
      "curvature": 8851,
      "anchor": 8852,
      "minimally": 8853,
      "Coordination": 8854,
      "Digoxin": 8855,
      "Midas": 8856,
      "erosion": 8857,
      "Protein": 8858,
      "Trendelenb": 8859,
      "subluxation": 8860,
      "HEMATOLOGIC": 8861,
      "Phenergan": 8862,
      "iodine": 8863,
      "repositioned": 8864,
      "Assessment": 8865,
      "Discussed": 8866,
      "ANGIO": 8867,
      "Parker": 8868,
      "##ogeneous": 8869,
      "oozing": 8870,
      "##ammertoe": 8871,
      "acoustic": 8872,
      "Trendelenburg": 8873,
      "7th": 8874,
      "Bro": 8875,
      "Cult": 8876,
      "Cath": 8877,
      "Compl": 8878,
      "Gram": 8879,
      "Home": 8880,
      "Keflex": 8881,
      "Lant": 8882,
      "RBC": 8883,
      "Same": 8884,
      "Successful": 8885,
      "Tumor": 8886,
      "VI": 8887,
      "az": 8888,
      "boot": 8889,
      "ties": 8890,
      "upt": 8891,
      "##my": 8892,
      "##surface": 8893,
      "##inium": 8894,
      "##enatal": 8895,
      "##asions": 8896,
      "##arterectomy": 8897,
      "##rocedure": 8898,
      "##omatous": 8899,
      "##osine": 8900,
      "##ilic": 8901,
      "##otrips": 8902,
      "##adryl": 8903,
      "stran": 8904,
      "##opy": 8905,
      "convers": 8906,
      "ask": 8907,
      "production": 8908,
      "##amycin": 8909,
      "Hepat": 8910,
      "neur": 8911,
      "##ovue": 8912,
      "##oview": 8913,
      "deterior": 8914,
      "Thought": 8915,
      "unli": 8916,
      "subject": 8917,
      "subarachnoid": 8918,
      "undersurface": 8919,
      "discrete": 8920,
      "consolid": 8921,
      "##racture": 8922,
      "massive": 8923,
      "downgoing": 8924,
      "flut": 8925,
      "revealing": 8926,
      "acting": 8927,
      "excurs": 8928,
      "occasions": 8929,
      "cool": 8930,
      "polyethylene": 8931,
      "GENITAL": 8932,
      "Univers": 8933,
      "Married": 8934,
      "Regarding": 8935,
      "vaginalis": 8936,
      "pulsatile": 8937,
      "gentamicin": 8938,
      "ulcerations": 8939,
      "pads": 8940,
      "effective": 8941,
      "Temp": 8942,
      "gradual": 8943,
      "moves": 8944,
      "granul": 8945,
      "fistul": 8946,
      "agreement": 8947,
      "success": 8948,
      "Symmet": 8949,
      "Benadryl": 8950,
      "irritation": 8951,
      "keratome": 8952,
      "bacterial": 8953,
      "RR1": 8954,
      "subtle": 8955,
      "buttocks": 8956,
      "Seroqu": 8957,
      "vesic": 8958,
      "Isovue": 8959,
      "stabilized": 8960,
      "ecchymosis": 8961,
      "Partial": 8962,
      "cholangiogram": 8963,
      "Delivery": 8964,
      "sponges": 8965,
      "adipose": 8966,
      "Darvocet": 8967,
      "desiccation": 8968,
      "Lantus": 8969,
      "##otripsy": 8970,
      "Seroquel": 8971,
      "(+": 8972,
      "Cal": 8973,
      "Edition": 8974,
      "Lim": 8975,
      "LDL": 8976,
      "Now": 8977,
      "Red": 8978,
      "Rest": 8979,
      "somnol": 8980,
      "tilt": 8981,
      "##eper": 8982,
      "##OUS": 8983,
      "##cks": 8984,
      "##aper": 8985,
      "##lottic": 8986,
      "##inding": 8987,
      "##orial": 8988,
      "##lege": 8989,
      "thrill": 8990,
      "##olo": 8991,
      "alkaline": 8992,
      "##estive": 8993,
      "why": 8994,
      "comorbid": 8995,
      "##allic": 8996,
      "PREP": 8997,
      "##ransth": 8998,
      "##ipar": 8999,
      "##ichond": 9000,
      "recre": 9001,
      "checks": 9002,
      "##oreg": 9003,
      "collecting": 9004,
      "##ATH": 9005,
      "COD": 9006,
      "design": 9007,
      "ligamentum": 9008,
      "##axillary": 9009,
      "nodular": 9010,
      "##equate": 9011,
      "Adequate": 9012,
      "##roscope": 9013,
      "vertex": 9014,
      "rasp": 9015,
      "mainly": 9016,
      "infiltrates": 9017,
      "indicate": 9018,
      "##azole": 9019,
      "suspension": 9020,
      "Prev": 9021,
      "knows": 9022,
      "Risk": 9023,
      "##hydration": 9024,
      "width": 9025,
      "oscill": 9026,
      "submuc": 9027,
      "latency": 9028,
      "Glenn": 9029,
      "relieve": 9030,
      "sounded": 9031,
      "spermatic": 9032,
      "##ontanel": 9033,
      "Reveals": 9034,
      "becomes": 9035,
      "comminuted": 9036,
      "parenchyma": 9037,
      "myringotomy": 9038,
      "Fluoroscopy": 9039,
      "important": 9040,
      "predominantly": 9041,
      "hypotension": 9042,
      "immobil": 9043,
      "Primary": 9044,
[...]
